{
  "version": "1.0",
  "truncation": null,
  "padding": {
    "strategy": "BatchLongest",
    "direction": "Left",
    "pad_to_multiple_of": null,
    "pad_id": 2,
    "pad_type_id": 0,
    "pad_token": "</s>"
  },
  "added_tokens": [
    {
      "id": 0,
      "content": "<unk>",
      "single_word": false,
      "lstrip": false,
      "rstrip": false,
      "normalized": false,
      "special": true
    },
    {
      "id": 1,
      "content": "<s>",
      "single_word": false,
      "lstrip": false,
      "rstrip": false,
      "normalized": false,
      "special": true
    },
    {
      "id": 2,
      "content": "</s>",
      "single_word": false,
      "lstrip": false,
      "rstrip": false,
      "normalized": false,
      "special": true
    }
  ],
  "normalizer": {
    "type": "Sequence",
    "normalizers": [
      {
        "type": "Prepend",
        "prepend": "▁"
      },
      {
        "type": "Replace",
        "pattern": {
          "String": " "
        },
        "content": "▁"
      }
    ]
  },
  "pre_tokenizer": null,
  "post_processor": {
    "type": "TemplateProcessing",
    "single": [
      {
        "SpecialToken": {
          "id": "<s>",
          "type_id": 0
        }
      },
      {
        "Sequence": {
          "id": "A",
          "type_id": 0
        }
      }
    ],
    "pair": [
      {
        "SpecialToken": {
          "id": "<s>",
          "type_id": 0
        }
      },
      {
        "Sequence": {
          "id": "A",
          "type_id": 0
        }
      },
      {
        "SpecialToken": {
          "id": "<s>",
          "type_id": 1
        }
      },
      {
        "Sequence": {
          "id": "B",
          "type_id": 1
        }
      }
    ],
    "special_tokens": {
      "<s>": {
        "id": "<s>",
        "ids": [
          1
        ],
        "tokens": [
          "<s>"
        ]
      }
    }
  },
  "decoder": {
    "type": "Sequence",
    "decoders": [
      {
        "type": "Replace",
        "pattern": {
          "String": "▁"
        },
        "content": " "
      },
      {
        "type": "ByteFallback"
      },
      {
        "type": "Fuse"
      },
      {
        "type": "Strip",
        "content": " ",
        "start": 1,
        "stop": 0
      }
    ]
  },
  "model": {
    "type": "BPE",
    "dropout": null,
    "unk_token": "<unk>",
    "continuing_subword_prefix": null,
    "end_of_word_suffix": null,
    "fuse_unk": true,
    "byte_fallback": true,
    "ignore_merges": false,
    "vocab": {
      "<unk>": 0,
      "<s>": 1,
      "</s>": 2,
      "<0x00>": 3,
      "<0x01>": 4,
      "<0x02>": 5,
      "<0x03>": 6,
      "<0x04>": 7,
      "<0x05>": 8,
      "<0x06>": 9,
      "<0x07>": 10,
      "<0x08>": 11,
      "<0x09>": 12,
      "<0x0A>": 13,
      "<0x0B>": 14,
      "<0x0C>": 15,
      "<0x0D>": 16,
      "<0x0E>": 17,
      "<0x0F>": 18,
      "<0x10>": 19,
      "<0x11>": 20,
      "<0x12>": 21,
      "<0x13>": 22,
      "<0x14>": 23,
      "<0x15>": 24,
      "<0x16>": 25,
      "<0x17>": 26,
      "<0x18>": 27,
      "<0x19>": 28,
      "<0x1A>": 29,
      "<0x1B>": 30,
      "<0x1C>": 31,
      "<0x1D>": 32,
      "<0x1E>": 33,
      "<0x1F>": 34,
      "<0x20>": 35,
      "<0x21>": 36,
      "<0x22>": 37,
      "<0x23>": 38,
      "<0x24>": 39,
      "<0x25>": 40,
      "<0x26>": 41,
      "<0x27>": 42,
      "<0x28>": 43,
      "<0x29>": 44,
      "<0x2A>": 45,
      "<0x2B>": 46,
      "<0x2C>": 47,
      "<0x2D>": 48,
      "<0x2E>": 49,
      "<0x2F>": 50,
      "<0x30>": 51,
      "<0x31>": 52,
      "<0x32>": 53,
      "<0x33>": 54,
      "<0x34>": 55,
      "<0x35>": 56,
      "<0x36>": 57,
      "<0x37>": 58,
      "<0x38>": 59,
      "<0x39>": 60,
      "<0x3A>": 61,
      "<0x3B>": 62,
      "<0x3C>": 63,
      "<0x3D>": 64,
      "<0x3E>": 65,
      "<0x3F>": 66,
      "<0x40>": 67,
      "<0x41>": 68,
      "<0x42>": 69,
      "<0x43>": 70,
      "<0x44>": 71,
      "<0x45>": 72,
      "<0x46>": 73,
      "<0x47>": 74,
      "<0x48>": 75,
      "<0x49>": 76,
      "<0x4A>": 77,
      "<0x4B>": 78,
      "<0x4C>": 79,
      "<0x4D>": 80,
      "<0x4E>": 81,
      "<0x4F>": 82,
      "<0x50>": 83,
      "<0x51>": 84,
      "<0x52>": 85,
      "<0x53>": 86,
      "<0x54>": 87,
      "<0x55>": 88,
      "<0x56>": 89,
      "<0x57>": 90,
      "<0x58>": 91,
      "<0x59>": 92,
      "<0x5A>": 93,
      "<0x5B>": 94,
      "<0x5C>": 95,
      "<0x5D>": 96,
      "<0x5E>": 97,
      "<0x5F>": 98,
      "<0x60>": 99,
      "<0x61>": 100,
      "<0x62>": 101,
      "<0x63>": 102,
      "<0x64>": 103,
      "<0x65>": 104,
      "<0x66>": 105,
      "<0x67>": 106,
      "<0x68>": 107,
      "<0x69>": 108,
      "<0x6A>": 109,
      "<0x6B>": 110,
      "<0x6C>": 111,
      "<0x6D>": 112,
      "<0x6E>": 113,
      "<0x6F>": 114,
      "<0x70>": 115,
      "<0x71>": 116,
      "<0x72>": 117,
      "<0x73>": 118,
      "<0x74>": 119,
      "<0x75>": 120,
      "<0x76>": 121,
      "<0x77>": 122,
      "<0x78>": 123,
      "<0x79>": 124,
      "<0x7A>": 125,
      "<0x7B>": 126,
      "<0x7C>": 127,
      "<0x7D>": 128,
      "<0x7E>": 129,
      "<0x7F>": 130,
      "<0x80>": 131,
      "<0x81>": 132,
      "<0x82>": 133,
      "<0x83>": 134,
      "<0x84>": 135,
      "<0x85>": 136,
      "<0x86>": 137,
      "<0x87>": 138,
      "<0x88>": 139,
      "<0x89>": 140,
      "<0x8A>": 141,
      "<0x8B>": 142,
      "<0x8C>": 143,
      "<0x8D>": 144,
      "<0x8E>": 145,
      "<0x8F>": 146,
      "<0x90>": 147,
      "<0x91>": 148,
      "<0x92>": 149,
      "<0x93>": 150,
      "<0x94>": 151,
      "<0x95>": 152,
      "<0x96>": 153,
      "<0x97>": 154,
      "<0x98>": 155,
      "<0x99>": 156,
      "<0x9A>": 157,
      "<0x9B>": 158,
      "<0x9C>": 159,
      "<0x9D>": 160,
      "<0x9E>": 161,
      "<0x9F>": 162,
      "<0xA0>": 163,
      "<0xA1>": 164,
      "<0xA2>": 165,
      "<0xA3>": 166,
      "<0xA4>": 167,
      "<0xA5>": 168,
      "<0xA6>": 169,
      "<0xA7>": 170,
      "<0xA8>": 171,
      "<0xA9>": 172,
      "<0xAA>": 173,
      "<0xAB>": 174,
      "<0xAC>": 175,
      "<0xAD>": 176,
      "<0xAE>": 177,
      "<0xAF>": 178,
      "<0xB0>": 179,
      "<0xB1>": 180,
      "<0xB2>": 181,
      "<0xB3>": 182,
      "<0xB4>": 183,
      "<0xB5>": 184,
      "<0xB6>": 185,
      "<0xB7>": 186,
      "<0xB8>": 187,
      "<0xB9>": 188,
      "<0xBA>": 189,
      "<0xBB>": 190,
      "<0xBC>": 191,
      "<0xBD>": 192,
      "<0xBE>": 193,
      "<0xBF>": 194,
      "<0xC0>": 195,
      "<0xC1>": 196,
      "<0xC2>": 197,
      "<0xC3>": 198,
      "<0xC4>": 199,
      "<0xC5>": 200,
      "<0xC6>": 201,
      "<0xC7>": 202,
      "<0xC8>": 203,
      "<0xC9>": 204,
      "<0xCA>": 205,
      "<0xCB>": 206,
      "<0xCC>": 207,
      "<0xCD>": 208,
      "<0xCE>": 209,
      "<0xCF>": 210,
      "<0xD0>": 211,
      "<0xD1>": 212,
      "<0xD2>": 213,
      "<0xD3>": 214,
      "<0xD4>": 215,
      "<0xD5>": 216,
      "<0xD6>": 217,
      "<0xD7>": 218,
      "<0xD8>": 219,
      "<0xD9>": 220,
      "<0xDA>": 221,
      "<0xDB>": 222,
      "<0xDC>": 223,
      "<0xDD>": 224,
      "<0xDE>": 225,
      "<0xDF>": 226,
      "<0xE0>": 227,
      "<0xE1>": 228,
      "<0xE2>": 229,
      "<0xE3>": 230,
      "<0xE4>": 231,
      "<0xE5>": 232,
      "<0xE6>": 233,
      "<0xE7>": 234,
      "<0xE8>": 235,
      "<0xE9>": 236,
      "<0xEA>": 237,
      "<0xEB>": 238,
      "<0xEC>": 239,
      "<0xED>": 240,
      "<0xEE>": 241,
      "<0xEF>": 242,
      "<0xF0>": 243,
      "<0xF1>": 244,
      "<0xF2>": 245,
      "<0xF3>": 246,
      "<0xF4>": 247,
      "<0xF5>": 248,
      "<0xF6>": 249,
      "<0xF7>": 250,
      "<0xF8>": 251,
      "<0xF9>": 252,
      "<0xFA>": 253,
      "<0xFB>": 254,
      "<0xFC>": 255,
      "<0xFD>": 256,
      "<0xFE>": 257,
      "<0xFF>": 258,
      "▁a": 259,
      "in": 260,
      "er": 261,
      "▁t": 262,
      "on": 263,
      "▁d": 264,
      "▁s": 265,
      "re": 266,
      "▁c": 267,
      "▁p": 268,
      "en": 269,
      "at": 270,
      "he": 271,
      "or": 272,
      "an": 273,
      "es": 274,
      "it": 275,
      "al": 276,
      "is": 277,
      "▁l": 278,
      "el": 279,
      "▁m": 280,
      "ar": 281,
      "ic": 282,
      "▁f": 283,
      "▁in": 284,
      "▁the": 285,
      "▁o": 286,
      "il": 287,
      "ion": 288,
      "ro": 289,
      "▁w": 290,
      "ent": 291,
      "▁b": 292,
      "▁e": 293,
      "▁di": 294,
      "▁an": 295,
      "un": 296,
      "ing": 297,
      "ed": 298,
      "▁n": 299,
      "ol": 300,
      "as": 301,
      "om": 302,
      "et": 303,
      "ou": 304,
      "▁to": 305,
      "ra": 306,
      "▁h": 307,
      "▁g": 308,
      "to": 309,
      "▁S": 310,
      "▁and": 311,
      "os": 312,
      "▁of": 313,
      "▁C": 314,
      "ell": 315,
      "ia": 316,
      "im": 317,
      "▁I": 318,
      "ta": 319,
      "▁A": 320,
      "▁T": 321,
      "▁v": 322,
      "▁con": 323,
      "ti": 324,
      "us": 325,
      "▁al": 326,
      "▁th": 327,
      "▁re": 328,
      "▁un": 329,
      "ut": 330,
      "le": 331,
      "▁P": 332,
      "ri": 333,
      "qu": 334,
      "ec": 335,
      "▁per": 336,
      "▁M": 337,
      "am": 338,
      "io": 339,
      "ot": 340,
      "ve": 341,
      "zion": 342,
      "id": 343,
      "ac": 344,
      "te": 345,
      "▁y": 346,
      "▁la": 347,
      "ess": 348,
      "▁pro": 349,
      "▁su": 350,
      "▁L": 351,
      "ere": 352,
      "ig": 353,
      "are": 354,
      "ter": 355,
      "▁il": 356,
      "ur": 357,
      "▁for": 358,
      "▁B": 359,
      "▁che": 360,
      "▁st": 361,
      "▁qu": 362,
      "▁com": 363,
      "▁you": 364,
      "▁D": 365,
      "ch": 366,
      "▁is": 367,
      "ato": 368,
      "ver": 369,
      "▁dell": 370,
      "ag": 371,
      "ment": 372,
      "pp": 373,
      "▁on": 374,
      "ul": 375,
      "▁F": 376,
      "▁R": 377,
      "eg": 378,
      "ad": 379,
      "ow": 380,
      "zione": 381,
      "and": 382,
      "ay": 383,
      "ly": 384,
      "▁r": 385,
      "ir": 386,
      "li": 387,
      "▁G": 388,
      "ce": 389,
      "res": 390,
      "em": 391,
      "▁N": 392,
      "ation": 393,
      "▁E": 394,
      "▁(": 395,
      "ale": 396,
      "ith": 397,
      "▁del": 398,
      "▁be": 399,
      "▁W": 400,
      "od": 401,
      "oc": 402,
      "▁ha": 403,
      "▁that": 404,
      "ati": 405,
      "est": 406,
      "▁as": 407,
      "▁i": 408,
      "▁H": 409,
      "▁le": 410,
      "▁de": 411,
      "la": 412,
      "▁è": 413,
      "▁wh": 414,
      "ers": 415,
      "ist": 416,
      "▁with": 417,
      "▁it": 418,
      "ff": 419,
      "iz": 420,
      "op": 421,
      "ate": 422,
      "ost": 423,
      "no": 424,
      "th": 425,
      "za": 426,
      "end": 427,
      "og": 428,
      "▁at": 429,
      "cc": 430,
      "▁or": 431,
      "ill": 432,
      "▁O": 433,
      "um": 434,
      "ore": 435,
      "▁The": 436,
      "▁sp": 437,
      "▁\"": 438,
      "▁da": 439,
      "ine": 440,
      "ono": 441,
      "ab": 442,
      "ie": 443,
      "▁are": 444,
      "art": 445,
      "ct": 446,
      "▁In": 447,
      "si": 448,
      "ort": 449,
      "ano": 450,
      "se": 451,
      "▁della": 452,
      "ica": 453,
      "per": 454,
      "ata": 455,
      "▁una": 456,
      "▁ch": 457,
      "ke": 458,
      "▁non": 459,
      "▁sc": 460,
      "iv": 461,
      "so": 462,
      "▁ne": 463,
      "st": 464,
      "ente": 465,
      "ali": 466,
      "▁V": 467,
      "▁U": 468,
      "▁ma": 469,
      "ant": 470,
      "▁all": 471,
      "ud": 472,
      "ile": 473,
      "ard": 474,
      "all": 475,
      "▁ad": 476,
      "mo": 477,
      "▁-": 478,
      "▁comp": 479,
      "ità": 480,
      "▁si": 481,
      "ap": 482,
      "ond": 483,
      "ma": 484,
      "ni": 485,
      "enti": 486,
      "che": 487,
      "..": 488,
      "▁ex": 489,
      "▁se": 490,
      "▁pi": 491,
      "bb": 492,
      "▁im": 493,
      "ci": 494,
      "ure": 495,
      "rom": 496,
      "▁we": 497,
      "ity": 498,
      "▁your": 499,
      "▁he": 500,
      "ome": 501,
      "ld": 502,
      "▁pre": 503,
      "va": 504,
      "▁us": 505,
      "ect": 506,
      "▁ri": 507,
      "▁can": 508,
      "one": 509,
      "ht": 510,
      "ice": 511,
      "up": 512,
      "ust": 513,
      "ge": 514,
      "ori": 515,
      "ass": 516,
      "▁J": 517,
      "▁have": 518,
      "▁cont": 519,
      "ok": 520,
      "ici": 521,
      "▁do": 522,
      "ind": 523,
      "▁by": 524,
      "▁not": 525,
      "ide": 526,
      "ug": 527,
      "▁this": 528,
      "▁li": 529,
      "▁was": 530,
      "▁pr": 531,
      "ast": 532,
      "ito": 533,
      "for": 534,
      "▁sh": 535,
      "ico": 536,
      "▁from": 537,
      "gi": 538,
      "▁Th": 539,
      "ento": 540,
      "▁tra": 541,
      "zioni": 542,
      "...": 543,
      "▁tr": 544,
      "▁lo": 545,
      "enza": 546,
      "ies": 547,
      "ich": 548,
      "▁app": 549,
      "▁dis": 550,
      "▁dei": 551,
      "▁pos": 552,
      "▁gi": 553,
      "our": 554,
      "ione": 555,
      "▁ab": 556,
      "▁ra": 557,
      "ire": 558,
      "ett": 559,
      "ue": 560,
      "▁will": 561,
      "lo": 562,
      "▁imp": 563,
      "av": 564,
      "▁pl": 565,
      "ite": 566,
      "▁pres": 567,
      "du": 568,
      "▁ar": 569,
      "olo": 570,
      "oun": 571,
      "▁ques": 572,
      "azione": 573,
      "ura": 574,
      "▁es": 575,
      "▁sono": 576,
      "ord": 577,
      "▁dal": 578,
      "ber": 579,
      "ally": 580,
      "▁più": 581,
      "ino": 582,
      "ult": 583,
      "ip": 584,
      "▁cons": 585,
      "out": 586,
      "emp": 587,
      "▁par": 588,
      "ould": 589,
      "▁inc": 590,
      "erv": 591,
      "na": 592,
      "ens": 593,
      "uo": 594,
      "▁inter": 595,
      "▁come": 596,
      "▁An": 597,
      "▁man": 598,
      "ari": 599,
      "co": 600,
      "▁–": 601,
      "▁k": 602,
      "▁j": 603,
      "anno": 604,
      "▁ag": 605,
      "▁col": 606,
      "ork": 607,
      "▁K": 608,
      "▁go": 609,
      "tiv": 610,
      "▁nell": 611,
      "zz": 612,
      "▁La": 613,
      "▁res": 614,
      "▁tut": 615,
      "ear": 616,
      "mente": 617,
      "▁acc": 618,
      "ru": 619,
      "ando": 620,
      "fer": 621,
      "ime": 622,
      "ita": 623,
      "▁me": 624,
      "▁ris": 625,
      "▁sul": 626,
      "ina": 627,
      "ble": 628,
      "▁St": 629,
      "▁nel": 630,
      "▁Y": 631,
      "▁so": 632,
      "ions": 633,
      "ante": 634,
      "▁Il": 635,
      "ont": 636,
      "▁part": 637,
      "▁delle": 638,
      "ini": 639,
      "ight": 640,
      "▁alla": 641,
      "ack": 642,
      "iamo": 643,
      "ep": 644,
      "att": 645,
      "ne": 646,
      "lic": 647,
      "if": 648,
      "age": 649,
      "▁anche": 650,
      "▁am": 651,
      "rit": 652,
      "ase": 653,
      "▁no": 654,
      "▁Ch": 655,
      "etto": 656,
      "▁It": 657,
      "▁has": 658,
      "ren": 659,
      "her": 660,
      "▁Al": 661,
      "uto": 662,
      "izz": 663,
      "▁en": 664,
      "era": 665,
      "ans": 666,
      "ace": 667,
      "▁out": 668,
      "ong": 669,
      "▁pu": 670,
      "▁but": 671,
      "ene": 672,
      "▁co": 673,
      "▁ind": 674,
      "▁ro": 675,
      "▁ess": 676,
      "ated": 677,
      "iss": 678,
      "▁up": 679,
      "form": 680,
      "▁ev": 681,
      "ther": 682,
      "▁more": 683,
      "▁mod": 684,
      "ance": 685,
      "bil": 686,
      "▁Q": 687,
      "zi": 688,
      "▁pers": 689,
      "vi": 690,
      "ose": 691,
      "iti": 692,
      "int": 693,
      "ous": 694,
      "▁sta": 695,
      "▁they": 696,
      "ca": 697,
      "▁ver": 698,
      "ry": 699,
      "▁ed": 700,
      "vo": 701,
      "amp": 702,
      "ak": 703,
      "ima": 704,
      "ach": 705,
      "ign": 706,
      "▁their": 707,
      "vel": 708,
      "▁cl": 709,
      "ck": 710,
      "▁cre": 711,
      "pt": 712,
      "gra": 713,
      "▁po": 714,
      "gio": 715,
      "ence": 716,
      "▁reg": 717,
      "ary": 718,
      "▁ass": 719,
      "ss": 720,
      "erm": 721,
      "oro": 722,
      "▁Com": 723,
      "olog": 724,
      "▁my": 725,
      "▁one": 726,
      "▁av": 727,
      "▁el": 728,
      "▁fe": 729,
      "▁gli": 730,
      "und": 731,
      "tem": 732,
      "ame": 733,
      "▁prop": 734,
      "ole": 735,
      "di": 736,
      "▁our": 737,
      "rat": 738,
      "▁car": 739,
      "ree": 740,
      "▁cu": 741,
      "amente": 742,
      "▁cas": 743,
      "anti": 744,
      "oci": 745,
      "ark": 746,
      "itt": 747,
      "iche": 748,
      "ater": 749,
      "▁sa": 750,
      "▁|": 751,
      "uro": 752,
      "▁about": 753,
      "able": 754,
      "▁cor": 755,
      "▁work": 756,
      "anc": 757,
      "ical": 758,
      "imo": 759,
      "▁ac": 760,
      "ys": 761,
      "▁fin": 762,
      "mer": 763,
      "▁Qu": 764,
      "ations": 765,
      "▁rec": 766,
      "▁att": 767,
      "esso": 768,
      "▁which": 769,
      "ors": 770,
      "ello": 771,
      "▁serv": 772,
      "ons": 773,
      "▁prov": 774,
      "▁pot": 775,
      "▁Pro": 776,
      "ang": 777,
      "der": 778,
      "bile": 779,
      "pl": 780,
      "tt": 781,
      "▁We": 782,
      "▁Wh": 783,
      "▁also": 784,
      "▁inv": 785,
      "▁dec": 786,
      "▁ci": 787,
      "ero": 788,
      "own": 789,
      "▁des": 790,
      "ays": 791,
      "ub": 792,
      "▁vis": 793,
      "▁questo": 794,
      "egli": 795,
      "ook": 796,
      ").": 797,
      "▁off": 798,
      "▁mo": 799,
      "lio": 800,
      "vers": 801,
      "▁ric": 802,
      "▁cos": 803,
      "ress": 804,
      "ink": 805,
      "▁new": 806,
      "▁diff": 807,
      "▁time": 808,
      "▁sec": 809,
      "▁qual": 810,
      "chi": 811,
      "▁any": 812,
      "▁sol": 813,
      "ani": 814,
      "act": 815,
      "▁te": 816,
      "▁gen": 817,
      "use": 818,
      "ings": 819,
      "ely": 820,
      "▁vol": 821,
      "▁ai": 822,
      "ition": 823,
      "amb": 824,
      "▁Ne": 825,
      "▁Le": 826,
      "▁Un": 827,
      "▁This": 828,
      "riv": 829,
      "▁some": 830,
      "ili": 831,
      "ual": 832,
      "tre": 833,
      "ick": 834,
      "ana": 835,
      "▁bu": 836,
      "mento": 837,
      "▁year": 838,
      "▁Per": 839,
      "▁his": 840,
      "pe": 841,
      "▁nella": 842,
      "ft": 843,
      "pos": 844,
      "▁gra": 845,
      "▁essere": 846,
      "ents": 847,
      "▁gu": 848,
      "▁leg": 849,
      "▁mol": 850,
      "oli": 851,
      "ron": 852,
      "ze": 853,
      "com": 854,
      "de": 855,
      "▁alle": 856,
      "ora": 857,
      "▁cap": 858,
      "rand": 859,
      "),": 860,
      "▁person": 861,
      "let": 862,
      "▁ins": 863,
      "ola": 864,
      "tare": 865,
      "anto": 866,
      "▁pe": 867,
      "▁there": 868,
      "▁them": 869,
      "▁min": 870,
      "orn": 871,
      "▁if": 872,
      "ish": 873,
      "ese": 874,
      "▁og": 875,
      "▁spec": 876,
      "ario": 877,
      "ain": 878,
      "▁like": 879,
      "▁need": 880,
      "line": 881,
      "▁get": 882,
      "▁eff": 883,
      "▁other": 884,
      "▁who": 885,
      "ction": 886,
      "reat": 887,
      "ondo": 888,
      "▁stud": 889,
      "▁int": 890,
      "bre": 891,
      "very": 892,
      "tain": 893,
      "ght": 894,
      "▁over": 895,
      "▁when": 896,
      "▁pol": 897,
      "ioni": 898,
      "▁nuo": 899,
      "▁med": 900,
      "▁been": 901,
      "▁Mar": 902,
      "▁cer": 903,
      "do": 904,
      "ev": 905,
      "ount": 906,
      "zza": 907,
      "▁what": 908,
      "wn": 909,
      "▁cui": 910,
      "ory": 911,
      "ane": 912,
      "▁lav": 913,
      "get": 914,
      "▁chi": 915,
      "igh": 916,
      "lud": 917,
      "▁most": 918,
      "▁met": 919,
      "▁would": 920,
      "▁nost": 921,
      "ws": 922,
      "ret": 923,
      "ild": 924,
      "ful": 925,
      "ris": 926,
      "▁Sp": 927,
      "mp": 928,
      "gh": 929,
      "▁kn": 930,
      "▁produ": 931,
      "ella": 932,
      "▁conc": 933,
      "▁inf": 934,
      "▁Ar": 935,
      "ments": 936,
      "▁prof": 937,
      "▁than": 938,
      "als": 939,
      "▁vi": 940,
      "▁add": 941,
      "▁Con": 942,
      "▁ut": 943,
      "fic": 944,
      "atto": 945,
      "▁bl": 946,
      "▁tro": 947,
      "▁how": 948,
      "▁fir": 949,
      "ugh": 950,
      "endo": 951,
      "oni": 952,
      "cia": 953,
      "uti": 954,
      "▁semp": 955,
      "amento": 956,
      "▁comm": 957,
      "▁just": 958,
      "igli": 959,
      "eri": 960,
      "rib": 961,
      "ric": 962,
      "▁You": 963,
      "▁ter": 964,
      "▁its": 965,
      "ced": 966,
      "ll": 967,
      "ven": 968,
      "imento": 969,
      "ista": 970,
      "bs": 971,
      "▁aff": 972,
      "▁don": 973,
      "▁had": 974,
      "ood": 975,
      "▁were": 976,
      "▁val": 977,
      "ative": 978,
      "oll": 979,
      "ER": 980,
      "peri": 981,
      "▁possi": 982,
      "mi": 983,
      "▁real": 984,
      "▁bec": 985,
      "gram": 986,
      "ople": 987,
      "▁may": 988,
      "▁For": 989,
      "les": 990,
      "lp": 991,
      "▁pa": 992,
      "lia": 993,
      "egu": 994,
      "▁loc": 995,
      "old": 996,
      "itu": 997,
      "▁mag": 998,
      "▁gio": 999,
      "▁due": 1000,
      "ON": 1001,
      "▁supp": 1002,
      "▁into": 1003,
      "▁He": 1004,
      "ating": 1005,
      "ech": 1006,
      "ph": 1007,
      "fter": 1008,
      "▁'": 1009,
      "▁help": 1010,
      "▁temp": 1011,
      "▁&": 1012,
      "▁suo": 1013,
      "anza": 1014,
      "▁far": 1015,
      "oto": 1016,
      "▁ta": 1017,
      "▁Se": 1018,
      "▁fam": 1019,
      "que": 1020,
      "▁use": 1021,
      "fe": 1022,
      "ates": 1023,
      "▁No": 1024,
      "▁alt": 1025,
      "▁rep": 1026,
      "etta": 1027,
      "otto": 1028,
      "ound": 1029,
      "▁fa": 1030,
      "▁num": 1031,
      "▁anni": 1032,
      "▁degli": 1033,
      "▁Ma": 1034,
      "day": 1035,
      "▁pass": 1036,
      "▁fun": 1037,
      "▁hanno": 1038,
      "▁make": 1039,
      "gan": 1040,
      "ele": 1041,
      "▁cost": 1042,
      "ved": 1043,
      "▁contro": 1044,
      "▁ent": 1045,
      "imp": 1046,
      "▁dalla": 1047,
      "▁people": 1048,
      "▁soci": 1049,
      "opo": 1050,
      "ung": 1051,
      "▁sal": 1052,
      "▁art": 1053,
      "ily": 1054,
      "▁gro": 1055,
      "tive": 1056,
      "ices": 1057,
      "iness": 1058,
      "eno": 1059,
      "ider": 1060,
      "▁tutti": 1061,
      "ade": 1062,
      "▁solo": 1063,
      "ning": 1064,
      "▁includ": 1065,
      "▁tw": 1066,
      "▁look": 1067,
      "▁thro": 1068,
      "▁En": 1069,
      "con": 1070,
      "▁her": 1071,
      "▁well": 1072,
      "ek": 1073,
      "ank": 1074,
      "bbe": 1075,
      "▁cent": 1076,
      "▁bas": 1077,
      "tern": 1078,
      "elli": 1079,
      "▁know": 1080,
      "\".": 1081,
      "atta": 1082,
      "vent": 1083,
      "▁And": 1084,
      "min": 1085,
      "vis": 1086,
      "▁bet": 1087,
      "▁mon": 1088,
      "▁ser": 1089,
      "ause": 1090,
      "▁propri": 1091,
      "▁Sh": 1092,
      "▁Re": 1093,
      "izi": 1094,
      "▁mi": 1095,
      "▁comun": 1096,
      "bi": 1097,
      "cun": 1098,
      "zia": 1099,
      "▁If": 1100,
      "▁...": 1101,
      "we": 1102,
      "▁form": 1103,
      "▁only": 1104,
      "ott": 1105,
      "▁ph": 1106,
      "ities": 1107,
      "xt": 1108,
      "▁first": 1109,
      "▁import": 1110,
      "▁said": 1111,
      "usiness": 1112,
      "▁exp": 1113,
      "erc": 1114,
      "vol": 1115,
      "▁fac": 1116,
      "ps": 1117,
      "oria": 1118,
      "alia": 1119,
      "▁differ": 1120,
      "ché": 1121,
      "iew": 1122,
      "▁prima": 1123,
      "▁through": 1124,
      "▁every": 1125,
      "ute": 1126,
      "atti": 1127,
      "arket": 1128,
      "▁aut": 1129,
      "hing": 1130,
      "ial": 1131,
      "▁Ad": 1132,
      "▁rel": 1133,
      "▁abb": 1134,
      "▁very": 1135,
      "▁back": 1136,
      "ins": 1137,
      "ise": 1138,
      "▁want": 1139,
      "▁these": 1140,
      "▁parte": 1141,
      "▁via": 1142,
      "izza": 1143,
      "atori": 1144,
      "▁loro": 1145,
      "▁dist": 1146,
      "▁wor": 1147,
      "ower": 1148,
      "red": 1149,
      "par": 1150,
      "zzo": 1151,
      "uta": 1152,
      "▁poss": 1153,
      "▁det": 1154,
      "ppo": 1155,
      "any": 1156,
      "▁sub": 1157,
      "ject": 1158,
      "inc": 1159,
      "▁fil": 1160,
      "esi": 1161,
      "king": 1162,
      "▁stato": 1163,
      "▁può": 1164,
      "▁fi": 1165,
      "▁dur": 1166,
      "ool": 1167,
      "▁Sc": 1168,
      "aria": 1169,
      "gg": 1170,
      "▁good": 1171,
      "▁inform": 1172,
      "ics": 1173,
      "eng": 1174,
      "▁lu": 1175,
      "▁questa": 1176,
      "edi": 1177,
      "ough": 1178,
      "▁sm": 1179,
      "enc": 1180,
      "▁proc": 1181,
      "▁pun": 1182,
      "▁conf": 1183,
      "▁molto": 1184,
      "atore": 1185,
      "▁program": 1186,
      "▁gener": 1187,
      "▁sempre": 1188,
      "▁sar": 1189,
      "▁As": 1190,
      "▁resp": 1191,
      "lus": 1192,
      "ange": 1193,
      "asi": 1194,
      "▁she": 1195,
      "▁play": 1196,
      "pr": 1197,
      "elle": 1198,
      "emb": 1199,
      "▁mar": 1200,
      "▁op": 1201,
      "inter": 1202,
      "▁sia": 1203,
      "ures": 1204,
      "uch": 1205,
      "urn": 1206,
      "▁$": 1207,
      "▁set": 1208,
      "▁online": 1209,
      ".\"": 1210,
      "menti": 1211,
      "ath": 1212,
      "▁sua": 1213,
      "▁Gi": 1214,
      "▁many": 1215,
      "ular": 1216,
      "atter": 1217,
      "ational": 1218,
      "▁grand": 1219,
      "▁prod": 1220,
      "▁proble": 1221,
      "▁str": 1222,
      "ann": 1223,
      "TI": 1224,
      "▁after": 1225,
      "▁two": 1226,
      "me": 1227,
      "ystem": 1228,
      "▁cal": 1229,
      "▁could": 1230,
      "oth": 1231,
      "iare": 1232,
      "▁ke": 1233,
      "▁dire": 1234,
      "▁[": 1235,
      "▁gior": 1236,
      "▁contin": 1237,
      "etti": 1238,
      "fore": 1239,
      "▁def": 1240,
      "AN": 1241,
      "▁should": 1242,
      "▁util": 1243,
      "sp": 1244,
      "▁oper": 1245,
      "bbl": 1246,
      "▁down": 1247,
      "elf": 1248,
      "▁Z": 1249,
      "ession": 1250,
      "▁best": 1251,
      "▁tutto": 1252,
      "▁On": 1253,
      "▁sulla": 1254,
      "ecess": 1255,
      "ona": 1256,
      "less": 1257,
      "▁requ": 1258,
      "▁way": 1259,
      "▁uno": 1260,
      "round": 1261,
      "ai": 1262,
      "▁Car": 1263,
      "ggi": 1264,
      "▁vers": 1265,
      "▁De": 1266,
      "▁camp": 1267,
      "alth": 1268,
      "▁sto": 1269,
      "velop": 1270,
      "▁colle": 1271,
      "osi": 1272,
      "hed": 1273,
      "icol": 1274,
      "ract": 1275,
      "EN": 1276,
      "fi": 1277,
      "▁high": 1278,
      "ward": 1279,
      "AR": 1280,
      "▁years": 1281,
      "its": 1282,
      "isc": 1283,
      "zo": 1284,
      "▁present": 1285,
      "aggio": 1286,
      "erg": 1287,
      "▁even": 1288,
      "▁see": 1289,
      "▁complet": 1290,
      "▁ca": 1291,
      "▁succ": 1292,
      "utto": 1293,
      "ull": 1294,
      "▁“": 1295,
      "ena": 1296,
      "ua": 1297,
      "OR": 1298,
      "▁dall": 1299,
      "▁bo": 1300,
      "egn": 1301,
      "atur": 1302,
      "bo": 1303,
      "▁/": 1304,
      "ock": 1305,
      "▁bene": 1306,
      "utt": 1307,
      "▁senza": 1308,
      "▁ogni": 1309,
      "▁design": 1310,
      "▁fare": 1311,
      "izio": 1312,
      "▁u": 1313,
      "omet": 1314,
      "hip": 1315,
      "▁where": 1316,
      "▁organ": 1317,
      "IN": 1318,
      "▁find": 1319,
      "▁now": 1320,
      "▁business": 1321,
      "ific": 1322,
      "▁then": 1323,
      "▁start": 1324,
      "esto": 1325,
      "▁tras": 1326,
      "osa": 1327,
      "▁disc": 1328,
      "▁appro": 1329,
      "esta": 1330,
      "ara": 1331,
      "▁diver": 1332,
      "▁own": 1333,
      "alt": 1334,
      "▁imm": 1335,
      "oss": 1336,
      "▁read": 1337,
      "por": 1338,
      "ited": 1339,
      "▁dom": 1340,
      "▁mil": 1341,
      "▁fl": 1342,
      "▁post": 1343,
      "▁cond": 1344,
      "ete": 1345,
      "▁necess": 1346,
      "▁quest": 1347,
      "▁inst": 1348,
      "▁such": 1349,
      "▁opp": 1350,
      "▁offer": 1351,
      "▁tempo": 1352,
      "▁cir": 1353,
      "zionale": 1354,
      "▁much": 1355,
      "ensi": 1356,
      "ows": 1357,
      "arch": 1358,
      "▁mus": 1359,
      "▁trans": 1360,
      "▁liv": 1361,
      "▁great": 1362,
      "▁Bl": 1363,
      "▁nei": 1364,
      "▁term": 1365,
      "AL": 1366,
      "▁because": 1367,
      "ict": 1368,
      "anta": 1369,
      "bl": 1370,
      "\",": 1371,
      "▁right": 1372,
      "▁did": 1373,
      "ness": 1374,
      "▁dopo": 1375,
      "▁home": 1376,
      "▁ide": 1377,
      "▁anc": 1378,
      "enze": 1379,
      "▁Non": 1380,
      "▁alcun": 1381,
      "inci": 1382,
      "▁Col": 1383,
      "ature": 1384,
      "imi": 1385,
      "ner": 1386,
      "zie": 1387,
      "ivid": 1388,
      "▁Co": 1389,
      "▁mom": 1390,
      "app": 1391,
      "▁.": 1392,
      "▁z": 1393,
      "▁How": 1394,
      "land": 1395,
      "▁occ": 1396,
      "▁used": 1397,
      "▁market": 1398,
      "▁pag": 1399,
      "▁take": 1400,
      "▁think": 1401,
      "atch": 1402,
      "▁bel": 1403,
      "▁Ex": 1404,
      "▁day": 1405,
      "forma": 1406,
      "▁cur": 1407,
      "ts": 1408,
      "ves": 1409,
      "indi": 1410,
      "col": 1411,
      "▁vari": 1412,
      "▁long": 1413,
      "▁fr": 1414,
      "ital": 1415,
      "bili": 1416,
      "ES": 1417,
      "uss": 1418,
      "▁Cl": 1419,
      "▁jo": 1420,
      "els": 1421,
      "ually": 1422,
      "▁por": 1423,
      "ware": 1424,
      "ecn": 1425,
      "abil": 1426,
      "chool": 1427,
      "arsi": 1428,
      "ving": 1429,
      "▁Di": 1430,
      "▁modo": 1431,
      "acc": 1432,
      "▁euro": 1433,
      "▁Ro": 1434,
      "ria": 1435,
      "way": 1436,
      "▁Tra": 1437,
      "ouse": 1438,
      "tivo": 1439,
      "▁Be": 1440,
      "orso": 1441,
      "▁To": 1442,
      "nd": 1443,
      "iste": 1444,
      "conom": 1445,
      "bilità": 1446,
      "▁mater": 1447,
      "orm": 1448,
      "▁Fr": 1449,
      "▁pur": 1450,
      "▁So": 1451,
      "▁ti": 1452,
      "duc": 1453,
      "▁sur": 1454,
      "▁perché": 1455,
      "▁dov": 1456,
      "ga": 1457,
      "▁ancora": 1458,
      "▁New": 1459,
      "ection": 1460,
      "other": 1461,
      "▁,": 1462,
      "▁experi": 1463,
      "▁#": 1464,
      "▁Su": 1465,
      "▁second": 1466,
      "ton": 1467,
      "▁system": 1468,
      "ustom": 1469,
      "AT": 1470,
      "▁here": 1471,
      "▁tre": 1472,
      "▁does": 1473,
      "essi": 1474,
      "▁fatto": 1475,
      "▁develop": 1476,
      "▁consider": 1477,
      "▁ment": 1478,
      "▁quando": 1479,
      "età": 1480,
      "man": 1481,
      "▁br": 1482,
      "▁week": 1483,
      "ida": 1484,
      "▁end": 1485,
      "▁bro": 1486,
      "▁information": 1487,
      "ave": 1488,
      "eni": 1489,
      "▁acqu": 1490,
      "▁lead": 1491,
      "osc": 1492,
      "▁Pl": 1493,
      "▁Si": 1494,
      "ason": 1495,
      "ail": 1496,
      "▁test": 1497,
      "▁data": 1498,
      "tà": 1499,
      "ues": 1500,
      "▁act": 1501,
      "▁ho": 1502,
      "▁lavoro": 1503,
      "▁being": 1504,
      "ede": 1505,
      "▁made": 1506,
      "ideo": 1507,
      "uc": 1508,
      "▁er": 1509,
      "isti": 1510,
      "▁sett": 1511,
      "▁risp": 1512,
      "▁All": 1513,
      "rà": 1514,
      "ince": 1515,
      "▁Go": 1516,
      "ms": 1517,
      "icc": 1518,
      "ib": 1519,
      "ativa": 1520,
      "po": 1521,
      "▁There": 1522,
      "bor": 1523,
      "▁product": 1524,
      "▁again": 1525,
      "▁Man": 1526,
      "alità": 1527,
      "▁quello": 1528,
      "da": 1529,
      "▁era": 1530,
      "arn": 1531,
      "arg": 1532,
      "▁lot": 1533,
      "ize": 1534,
      "almente": 1535,
      "▁doc": 1536,
      "▁stra": 1537,
      "▁team": 1538,
      "▁Reg": 1539,
      "▁Pa": 1540,
      "rebbe": 1541,
      "▁altri": 1542,
      "▁before": 1543,
      "▁vita": 1544,
      "asc": 1545,
      "▁super": 1546,
      "sc": 1547,
      "▁state": 1548,
      "gu": 1549,
      "▁«": 1550,
      "▁cr": 1551,
      "▁those": 1552,
      "ident": 1553,
      "▁world": 1554,
      "▁Pre": 1555,
      "▁care": 1556,
      "zzi": 1557,
      "▁nelle": 1558,
      "▁pop": 1559,
      "▁quanto": 1560,
      "ets": 1561,
      "▁tip": 1562,
      "▁Jo": 1563,
      "ece": 1564,
      "▁port": 1565,
      "ollow": 1566,
      "echn": 1567,
      "izione": 1568,
      "ying": 1569,
      "resent": 1570,
      "▁poi": 1571,
      "ining": 1572,
      "▁proprio": 1573,
      "ash": 1574,
      "▁gr": 1575,
      "rent": 1576,
      "▁But": 1577,
      "otti": 1578,
      "ern": 1579,
      "▁free": 1580,
      "ortun": 1581,
      "mail": 1582,
      "zio": 1583,
      "▁così": 1584,
      "▁dove": 1585,
      "▁under": 1586,
      "work": 1587,
      "▁est": 1588,
      "▁call": 1589,
      "▁process": 1590,
      "▁hand": 1591,
      "ars": 1592,
      "vil": 1593,
      "ines": 1594,
      "tività": 1595,
      "▁rapp": 1596,
      "▁rich": 1597,
      "fica": 1598,
      "▁sarà": 1599,
      "ister": 1600,
      "▁cli": 1601,
      "▁Pr": 1602,
      "▁segu": 1603,
      "▁him": 1604,
      "▁tecn": 1605,
      "▁cat": 1606,
      ",\"": 1607,
      "▁profession": 1608,
      "//": 1609,
      "be": 1610,
      "▁really": 1611,
      "▁utilizz": 1612,
      "▁top": 1613,
      "oso": 1614,
      "▁incre": 1615,
      "ette": 1616,
      "ivo": 1617,
      "▁prog": 1618,
      "read": 1619,
      "▁cook": 1620,
      "://": 1621,
      "iglio": 1622,
      "▁App": 1623,
      "isce": 1624,
      "istr": 1625,
      "ution": 1626,
      "ather": 1627,
      "▁sic": 1628,
      "ator": 1629,
      "▁tuo": 1630,
      "▁sl": 1631,
      "pert": 1632,
      "▁last": 1633,
      "▁trov": 1634,
      "▁life": 1635,
      "tto": 1636,
      "▁sop": 1637,
      "▁mondo": 1638,
      "▁line": 1639,
      "orto": 1640,
      "IC": 1641,
      "▁Home": 1642,
      "▁book": 1643,
      "ption": 1644,
      "agn": 1645,
      "assi": 1646,
      "▁già": 1647,
      "▁support": 1648,
      "imes": 1649,
      "esti": 1650,
      "▁racc": 1651,
      "ltre": 1652,
      "▁different": 1653,
      "▁Ph": 1654,
      "▁sk": 1655,
      "▁cle": 1656,
      "▁X": 1657,
      "▁while": 1658,
      "▁Is": 1659,
      "▁Res": 1660,
      "ener": 1661,
      "▁each": 1662,
      "▁Tr": 1663,
      "▁provid": 1664,
      "vail": 1665,
      "ders": 1666,
      "▁disp": 1667,
      "ized": 1668,
      "▁US": 1669,
      "▁Or": 1670,
      "ology": 1671,
      "▁sing": 1672,
      "▁lim": 1673,
      "une": 1674,
      "omo": 1675,
      "miss": 1676,
      "▁itali": 1677,
      "▁cour": 1678,
      "▁ott": 1679,
      "oma": 1680,
      "▁Rep": 1681,
      "EL": 1682,
      "▁sig": 1683,
      "ismo": 1684,
      "▁caso": 1685,
      "▁Gu": 1686,
      "▁econom": 1687,
      "▁dep": 1688,
      "▁ext": 1689,
      "▁rit": 1690,
      "▁Lo": 1691,
      "ames": 1692,
      "led": 1693,
      "▁polit": 1694,
      "▁migli": 1695,
      "ased": 1696,
      "▁Cont": 1697,
      "ex": 1698,
      "ember": 1699,
      "▁finan": 1700,
      "▁rim": 1701,
      "▁ty": 1702,
      "IS": 1703,
      "book": 1704,
      "ian": 1705,
      "vern": 1706,
      "iglia": 1707,
      "▁fine": 1708,
      "▁What": 1709,
      "▁custom": 1710,
      "arm": 1711,
      "ks": 1712,
      "▁sito": 1713,
      "eld": 1714,
      "go": 1715,
      "▁around": 1716,
      "▁:": 1717,
      "▁quali": 1718,
      "▁equ": 1719,
      "▁fu": 1720,
      "chio": 1721,
      "oper": 1722,
      "▁They": 1723,
      "omm": 1724,
      "▁sim": 1725,
      "▁grande": 1726,
      "izzazione": 1727,
      "▁place": 1728,
      "ters": 1729,
      "▁bre": 1730,
      "enzi": 1731,
      "atura": 1732,
      "▁going": 1733,
      "▁commun": 1734,
      "ways": 1735,
      "br": 1736,
      "▁web": 1737,
      "▁ore": 1738,
      "▁decis": 1739,
      "pi": 1740,
      "reen": 1741,
      "ala": 1742,
      "erà": 1743,
      "▁ste": 1744,
      "▁Par": 1745,
      "▁perc": 1746,
      "riend": 1747,
      "▁tak": 1748,
      "ever": 1749,
      "▁Cons": 1750,
      "▁using": 1751,
      "▁list": 1752,
      "▁fra": 1753,
      "ween": 1754,
      "▁Post": 1755,
      "ativo": 1756,
      "ety": 1757,
      "air": 1758,
      "▁aggi": 1759,
      "▁casa": 1760,
      "▁priv": 1761,
      "ected": 1762,
      "atr": 1763,
      "▁tri": 1764,
      "abile": 1765,
      "▁count": 1766,
      "iam": 1767,
      "▁nuovo": 1768,
      "▁let": 1769,
      "▁artic": 1770,
      "▁same": 1771,
      "▁primo": 1772,
      "▁sotto": 1773,
      "bblic": 1774,
      "load": 1775,
      "ined": 1776,
      "uri": 1777,
      "vem": 1778,
      "▁show": 1779,
      "▁persone": 1780,
      "enn": 1781,
      "▁still": 1782,
      "teg": 1783,
      "▁Pol": 1784,
      "▁anal": 1785,
      "otel": 1786,
      "▁San": 1787,
      "▁princi": 1788,
      "IT": 1789,
      "ote": 1790,
      "▁base": 1791,
      "▁Cent": 1792,
      "▁htt": 1793,
      "▁volta": 1794,
      "▁quindi": 1795,
      "▁Italia": 1796,
      "▁prom": 1797,
      "imenti": 1798,
      "▁tal": 1799,
      "ants": 1800,
      "nivers": 1801,
      "▁special": 1802,
      "▁exc": 1803,
      "▁require": 1804,
      "▁somet": 1805,
      "▁pay": 1806,
      "▁At": 1807,
      "ffici": 1808,
      "kes": 1809,
      "▁follow": 1810,
      "▁stand": 1811,
      "▁month": 1812,
      "▁nostro": 1813,
      "▁anno": 1814,
      "ten": 1815,
      "▁between": 1816,
      "▁company": 1817,
      "gli": 1818,
      "ross": 1819,
      "▁point": 1820,
      "▁control": 1821,
      "iment": 1822,
      "uale": 1823,
      "ances": 1824,
      "▁webs": 1825,
      "▁cosa": 1826,
      "port": 1827,
      "▁health": 1828,
      "essa": 1829,
      "ling": 1830,
      "▁both": 1831,
      "ive": 1832,
      "ziend": 1833,
      "vailable": 1834,
      "▁Pi": 1835,
      "▁dai": 1836,
      "aren": 1837,
      "rend": 1838,
      "▁ult": 1839,
      "▁individ": 1840,
      "occ": 1841,
      "idente": 1842,
      "▁cred": 1843,
      "▁pubbl": 1844,
      "▁tutte": 1845,
      "▁Fe": 1846,
      "cial": 1847,
      "▁applic": 1848,
      "▁run": 1849,
      "▁dev": 1850,
      "▁eas": 1851,
      "▁tem": 1852,
      "▁class": 1853,
      "iva": 1854,
      "agli": 1855,
      "lease": 1856,
      "▁fut": 1857,
      "▁perio": 1858,
      "▁few": 1859,
      "edic": 1860,
      "▁perf": 1861,
      "▁Euro": 1862,
      "ody": 1863,
      "▁attra": 1864,
      "oney": 1865,
      "▁video": 1866,
      "▁experience": 1867,
      "▁aver": 1868,
      "arge": 1869,
      "▁sost": 1870,
      "▁Mil": 1871,
      "AS": 1872,
      "▁quella": 1873,
      "▁fact": 1874,
      "ittle": 1875,
      "▁situ": 1876,
      "▁visit": 1877,
      "▁Comp": 1878,
      "esse": 1879,
      "▁child": 1880,
      "▁Ass": 1881,
      "▁ben": 1882,
      "▁too": 1883,
      "sh": 1884,
      "▁With": 1885,
      "▁stata": 1886,
      "atic": 1887,
      "▁Che": 1888,
      "▁Cor": 1889,
      "▁possono": 1890,
      "▁Am": 1891,
      "▁oltre": 1892,
      "▁service": 1893,
      "▁success": 1894,
      "▁dalle": 1895,
      "▁fino": 1896,
      "▁Bo": 1897,
      "rare": 1898,
      "▁particol": 1899,
      "edere": 1900,
      "▁em": 1901,
      "▁cho": 1902,
      "▁tratta": 1903,
      "▁intern": 1904,
      "▁ret": 1905,
      "pa": 1906,
      "▁orig": 1907,
      "▁writ": 1908,
      "▁cult": 1909,
      "▁dem": 1910,
      "▁found": 1911,
      "ger": 1912,
      "▁diret": 1913,
      "▁Ind": 1914,
      "ittà": 1915,
      "▁result": 1916,
      "▁keep": 1917,
      "▁perm": 1918,
      "▁cam": 1919,
      "▁happ": 1920,
      "▁Amer": 1921,
      "pro": 1922,
      "▁simp": 1923,
      "razione": 1924,
      "ritto": 1925,
      "▁perform": 1926,
      "In": 1927,
      "ulti": 1928,
      "▁prot": 1929,
      "uzione": 1930,
      "▁uni": 1931,
      "▁oggi": 1932,
      "▁When": 1933,
      "▁fav": 1934,
      "▁signi": 1935,
      "▁cit": 1936,
      "loy": 1937,
      "etro": 1938,
      "orts": 1939,
      "via": 1940,
      "▁questi": 1941,
      "OL": 1942,
      "▁possibile": 1943,
      "▁rece": 1944,
      "view": 1945,
      "ense": 1946,
      "▁open": 1947,
      "▁say": 1948,
      "▁Ste": 1949,
      "thing": 1950,
      "▁Do": 1951,
      "▁available": 1952,
      "▁things": 1953,
      "▁feel": 1954,
      "▁ann": 1955,
      "▁iss": 1956,
      "▁dello": 1957,
      "▁Sal": 1958,
      "▁Mo": 1959,
      "enere": 1960,
      "▁Lu": 1961,
      "▁asp": 1962,
      "▁school": 1963,
      "▁pia": 1964,
      "▁better": 1965,
      "▁film": 1966,
      "identi": 1967,
      "cri": 1968,
      "▁quale": 1969,
      "▁invest": 1970,
      "▁esp": 1971,
      "▁viene": 1972,
      "▁tit": 1973,
      "ram": 1974,
      "▁Can": 1975,
      "icazione": 1976,
      "▁sf": 1977,
      "RE": 1978,
      "▁project": 1979,
      "▁mill": 1980,
      "▁during": 1981,
      "azioni": 1982,
      "▁emp": 1983,
      "verso": 1984,
      "▁three": 1985,
      "▁plan": 1986,
      "▁interest": 1987,
      "▁small": 1988,
      "▁compet": 1989,
      "▁giorni": 1990,
      "aro": 1991,
      "ished": 1992,
      "esa": 1993,
      "▁Acc": 1994,
      "▁pens": 1995,
      "▁number": 1996,
      "▁indust": 1997,
      "▁dati": 1998,
      "IA": 1999,
      "▁picc": 2000,
      "▁giv": 2001,
      "▁stru": 2002,
      "▁Bu": 2003,
      "▁important": 2004,
      "oco": 2005,
      "▁love": 2006,
      "▁vo": 2007,
      "ages": 2008,
      "▁sog": 2009,
      "▁caus": 2010,
      "rateg": 2011,
      "▁adv": 2012,
      "▁—": 2013,
      "▁secondo": 2014,
      "aggi": 2015,
      "iale": 2016,
      "ding": 2017,
      "▁mass": 2018,
      "▁build": 2019,
      "▁Come": 2020,
      "▁water": 2021,
      "▁sent": 2022,
      "▁Serv": 2023,
      "unt": 2024,
      "▁without": 2025,
      "ument": 2026,
      "arly": 2027,
      "▁natur": 2028,
      "▁neg": 2029,
      "ists": 2030,
      "ple": 2031,
      "▁lavor": 2032,
      "▁camb": 2033,
      "ought": 2034,
      "▁Pres": 2035,
      "ces": 2036,
      "▁must": 2037,
      "▁parti": 2038,
      "▁Ag": 2039,
      "▁dim": 2040,
      "▁News": 2041,
      "▁might": 2042,
      "ogli": 2043,
      "▁tot": 2044,
      "▁ob": 2045,
      "▁always": 2046,
      "▁qui": 2047,
      "etting": 2048,
      "▁sure": 2049,
      "▁conta": 2050,
      "hes": 2051,
      "▁personal": 2052,
      "▁rest": 2053,
      "ogo": 2054,
      "jo": 2055,
      "▁including": 2056,
      "▁little": 2057,
      "ela": 2058,
      "▁auto": 2059,
      "The": 2060,
      "▁She": 2061,
      "osto": 2062,
      "▁area": 2063,
      "▁order": 2064,
      "▁defin": 2065,
      "▁vend": 2066,
      "▁giorno": 2067,
      "▁dig": 2068,
      ".,": 2069,
      "....": 2070,
      "▁techn": 2071,
      "▁momento": 2072,
      "▁gar": 2073,
      "▁website": 2074,
      "▁Val": 2075,
      "▁game": 2076,
      "▁mer": 2077,
      "rid": 2078,
      "▁fre": 2079,
      "▁dispos": 2080,
      "vilu": 2081,
      "▁foto": 2082,
      "▁stesso": 2083,
      "▁Dec": 2084,
      "orno": 2085,
      "ode": 2086,
      "▁My": 2087,
      "▁big": 2088,
      "▁hard": 2089,
      "▁main": 2090,
      "▁et": 2091,
      "▁sci": 2092,
      "ggio": 2093,
      "▁Da": 2094,
      "▁case": 2095,
      "▁power": 2096,
      "▁ave": 2097,
      "cio": 2098,
      "eme": 2099,
      "erca": 2100,
      "osp": 2101,
      "▁family": 2102,
      "itori": 2103,
      "▁merc": 2104,
      "▁dest": 2105,
      "omen": 2106,
      "▁Gra": 2107,
      "OS": 2108,
      "▁services": 2109,
      "▁able": 2110,
      "agement": 2111,
      "▁eng": 2112,
      "▁spe": 2113,
      "▁May": 2114,
      "▁social": 2115,
      "ism": 2116,
      "▁provide": 2117,
      "istema": 2118,
      "OM": 2119,
      "cco": 2120,
      "ream": 2121,
      "▁sign": 2122,
      "aster": 2123,
      "▁Mon": 2124,
      "▁»": 2125,
      "orta": 2126,
      "▁forma": 2127,
      "val": 2128,
      "▁ing": 2129,
      "▁bamb": 2130,
      "ared": 2131,
      "▁mai": 2132,
      "til": 2133,
      "▁È": 2134,
      "enso": 2135,
      "guard": 2136,
      "elo": 2137,
      "▁arriv": 2138,
      "▁bar": 2139,
      "▁Univers": 2140,
      "▁impro": 2141,
      "▁fond": 2142,
      "ffer": 2143,
      "▁continu": 2144,
      "ards": 2145,
      "▁informa": 2146,
      "▁Te": 2147,
      "▁level": 2148,
      "arie": 2149,
      "ratt": 2150,
      "▁sui": 2151,
      "▁lung": 2152,
      "▁Ed": 2153,
      "▁nostra": 2154,
      "It": 2155,
      "▁beg": 2156,
      "▁mal": 2157,
      "▁incont": 2158,
      "ency": 2159,
      "ah": 2160,
      "▁event": 2161,
      "cept": 2162,
      "▁stor": 2163,
      "inal": 2164,
      "▁unders": 2165,
      "▁friend": 2166,
      "ET": 2167,
      "▁addition": 2168,
      "▁giorn": 2169,
      "self": 2170,
      "▁Una": 2171,
      "▁ant": 2172,
      "▁direct": 2173,
      "▁something": 2174,
      "▁città": 2175,
      "▁agli": 2176,
      "▁group": 2177,
      "ective": 2178,
      "▁next": 2179,
      "ivi": 2180,
      "lu": 2181,
      "vero": 2182,
      "bility": 2183,
      "▁altre": 2184,
      "org": 2185,
      "!!": 2186,
      "▁Art": 2187,
      "ently": 2188,
      "igi": 2189,
      "tand": 2190,
      "▁opt": 2191,
      "▁within": 2192,
      "oot": 2193,
      "▁soft": 2194,
      "▁Des": 2195,
      "uf": 2196,
      "iron": 2197,
      "▁Nel": 2198,
      "isog": 2199,
      "▁abbiamo": 2200,
      "▁comb": 2201,
      "itch": 2202,
      "▁rem": 2203,
      "▁liber": 2204,
      "icro": 2205,
      "▁Leg": 2206,
      "▁consum": 2207,
      "▁IN": 2208,
      "bal": 2209,
      "▁Ins": 2210,
      "vert": 2211,
      "ites": 2212,
      "tivi": 2213,
      "wh": 2214,
      "pping": 2215,
      "acy": 2216,
      "ope": 2217,
      "▁another": 2218,
      "▁seg": 2219,
      "ecip": 2220,
      "osta": 2221,
      "▁access": 2222,
      "▁give": 2223,
      "ED": 2224,
      "▁By": 2225,
      "ament": 2226,
      "lex": 2227,
      "▁media": 2228,
      "▁qualche": 2229,
      "▁That": 2230,
      "▁princip": 2231,
      "▁noi": 2232,
      "ately": 2233,
      "▁svilu": 2234,
      "▁site": 2235,
      "hi": 2236,
      "sieme": 2237,
      "▁Sec": 2238,
      "yn": 2239,
      "rig": 2240,
      "▁rese": 2241,
      "▁Min": 2242,
      "ically": 2243,
      "eder": 2244,
      "▁las": 2245,
      "▁ref": 2246,
      "izzare": 2247,
      "ours": 2248,
      "of": 2249,
      "ID": 2250,
      "▁full": 2251,
      "▁benef": 2252,
      "▁since": 2253,
      "orio": 2254,
      "ery": 2255,
      "▁money": 2256,
      "▁gl": 2257,
      "▁opportun": 2258,
      "▁Med": 2259,
      "▁mis": 2260,
      "▁days": 2261,
      "▁diffic": 2262,
      "ichi": 2263,
      "▁avere": 2264,
      "▁scel": 2265,
      "ologia": 2266,
      "▁punto": 2267,
      "▁head": 2268,
      "AM": 2269,
      "uoi": 2270,
      "ume": 2271,
      "▁ele": 2272,
      "▁current": 2273,
      "▁attività": 2274,
      "▁less": 2275,
      "▁conn": 2276,
      "▁Ac": 2277,
      "mm": 2278,
      "▁nuova": 2279,
      "rive": 2280,
      "outh": 2281,
      "vere": 2282,
      "▁strateg": 2283,
      "▁determ": 2284,
      "▁room": 2285,
      "▁confer": 2286,
      "▁contrib": 2287,
      "urs": 2288,
      "▁alm": 2289,
      "▁pub": 2290,
      "▁crit": 2291,
      "▁divent": 2292,
      "▁Bar": 2293,
      "tamente": 2294,
      "vid": 2295,
      "isi": 2296,
      "ches": 2297,
      "row": 2298,
      "▁colla": 2299,
      "▁grow": 2300,
      "▁report": 2301,
      "▁food": 2302,
      "▁meno": 2303,
      "ieg": 2304,
      "▁pubblic": 2305,
      "tag": 2306,
      "▁Fin": 2307,
      "iews": 2308,
      "▁Roma": 2309,
      "▁prob": 2310,
      "▁invece": 2311,
      "ries": 2312,
      "ley": 2313,
      "ert": 2314,
      "▁account": 2315,
      "▁Don": 2316,
      "▁giov": 2317,
      "izzato": 2318,
      "▁spa": 2319,
      "etwork": 2320,
      "▁dr": 2321,
      "ories": 2322,
      "▁alcuni": 2323,
      "care": 2324,
      "iore": 2325,
      "izia": 2326,
      "▁norm": 2327,
      "▁memb": 2328,
      "▁prodotti": 2329,
      "▁check": 2330,
      "▁Cap": 2331,
      "▁tur": 2332,
      "▁squ": 2333,
      "▁assist": 2334,
      "▁cin": 2335,
      "▁parl": 2336,
      "TO": 2337,
      "irt": 2338,
      "icip": 2339,
      "▁One": 2340,
      "▁risult": 2341,
      "▁old": 2342,
      "▁grat": 2343,
      "itare": 2344,
      "▁sistema": 2345,
      "▁rispetto": 2346,
      "▁Intern": 2347,
      "▁deb": 2348,
      "▁research": 2349,
      "IL": 2350,
      "tore": 2351,
      "ordin": 2352,
      "▁got": 2353,
      "▁Cas": 2354,
      "▁ap": 2355,
      "▁light": 2356,
      "▁working": 2357,
      "▁govern": 2358,
      "▁>": 2359,
      "icy": 2360,
      "▁ren": 2361,
      "▁put": 2362,
      "▁Comm": 2363,
      "▁Questo": 2364,
      "▁attraverso": 2365,
      "▁DI": 2366,
      "▁Eng": 2367,
      "AC": 2368,
      "▁pat": 2369,
      "▁mentre": 2370,
      "▁understand": 2371,
      "nov": 2372,
      "▁suoi": 2373,
      "▁sulle": 2374,
      "▁altro": 2375,
      "ike": 2376,
      "ential": 2377,
      "orre": 2378,
      "hor": 2379,
      "ump": 2380,
      "▁dedic": 2381,
      "ences": 2382,
      "▁storia": 2383,
      "ieve": 2384,
      "▁Apr": 2385,
      "atica": 2386,
      "▁link": 2387,
      "▁Cal": 2388,
      "▁never": 2389,
      "▁mess": 2390,
      "▁looking": 2391,
      "▁public": 2392,
      "▁const": 2393,
      "RO": 2394,
      "ido": 2395,
      "maz": 2396,
      "ample": 2397,
      "ills": 2398,
      "▁Ab": 2399,
      "▁maggio": 2400,
      "ird": 2401,
      "▁Sta": 2402,
      "▁inizi": 2403,
      "▁vic": 2404,
      "▁•": 2405,
      "▁esemp": 2406,
      "▁Our": 2407,
      "▁products": 2408,
      "▁mor": 2409,
      "▁Ser": 2410,
      "eci": 2411,
      "ids": 2412,
      "▁bisog": 2413,
      "▁meet": 2414,
      "uman": 2415,
      "▁informazioni": 2416,
      "▁deve": 2417,
      "▁stat": 2418,
      "ney": 2419,
      "▁sap": 2420,
      "▁activ": 2421,
      "dd": 2422,
      "▁Part": 2423,
      "oltre": 2424,
      "▁deli": 2425,
      "acebook": 2426,
      "usc": 2427,
      "▁esc": 2428,
      "▁indic": 2429,
      "▁signific": 2430,
      "uter": 2431,
      "▁making": 2432,
      "▁circ": 2433,
      "▁tas": 2434,
      "▁educ": 2435,
      "▁quality": 2436,
      "anda": 2437,
      "vvero": 2438,
      "▁rappresent": 2439,
      "▁students": 2440,
      "ativi": 2441,
      "ffic": 2442,
      "▁sempl": 2443,
      "▁commer": 2444,
      "orth": 2445,
      "ocus": 2446,
      "ww": 2447,
      "▁Your": 2448,
      "▁tutta": 2449,
      "ogle": 2450,
      "ems": 2451,
      "ked": 2452,
      "▁today": 2453,
      "▁raga": 2454,
      "▁territ": 2455,
      "▁ru": 2456,
      "▁elett": 2457,
      "bro": 2458,
      "enzione": 2459,
      "▁sel": 2460,
      "▁dic": 2461,
      "▁local": 2462,
      "▁Rec": 2463,
      "ization": 2464,
      "▁disponi": 2465,
      "▁durante": 2466,
      "▁maggi": 2467,
      "vious": 2468,
      "hn": 2469,
      "▁infatti": 2470,
      "▁Inter": 2471,
      "ords": 2472,
      "▁These": 2473,
      "eria": 2474,
      "▁servizio": 2475,
      "lement": 2476,
      "itive": 2477,
      "▁ora": 2478,
      "ury": 2479,
      "uso": 2480,
      "▁mio": 2481,
      "▁pract": 2482,
      "▁stati": 2483,
      "yle": 2484,
      "▁partecip": 2485,
      "▁proced": 2486,
      "itor": 2487,
      "▁air": 2488,
      "ranno": 2489,
      "sa": 2490,
      "ects": 2491,
      "ustr": 2492,
      "ettere": 2493,
      "▁prefer": 2494,
      "▁Fl": 2495,
      "ots": 2496,
      "ik": 2497,
      "▁Inc": 2498,
      "tad": 2499,
      "▁centro": 2500,
      "▁settim": 2501,
      "anni": 2502,
      "ION": 2503,
      "ring": 2504,
      "▁pri": 2505,
      "the": 2506,
      "ania": 2507,
      "▁grazie": 2508,
      "ending": 2509,
      "www": 2510,
      "▁include": 2511,
      "▁dra": 2512,
      "▁circa": 2513,
      "▁house": 2514,
      "▁email": 2515,
      "rop": 2516,
      "eso": 2517,
      "ettore": 2518,
      "ged": 2519,
      "▁Me": 2520,
      "engono": 2521,
      "▁El": 2522,
      "▁More": 2523,
      "atures": 2524,
      "▁ricerca": 2525,
      "▁*": 2526,
      "anze": 2527,
      "▁x": 2528,
      "▁change": 2529,
      "▁gru": 2530,
      "▁+": 2531,
      "▁na": 2532,
      "rattutto": 2533,
      "ral": 2534,
      "chia": 2535,
      "itions": 2536,
      "▁University": 2537,
      "▁vost": 2538,
      "by": 2539,
      "thers": 2540,
      "▁servizi": 2541,
      "ush": 2542,
      "▁sugg": 2543,
      "resc": 2544,
      "▁Tw": 2545,
      "▁past": 2546,
      "▁conosc": 2547,
      "▁easy": 2548,
      "▁course": 2549,
      "room": 2550,
      "▁against": 2551,
      "▁però": 2552,
      "▁Stud": 2553,
      "vano": 2554,
      "▁atta": 2555,
      "▁music": 2556,
      "▁cover": 2557,
      "ior": 2558,
      "▁qualità": 2559,
      "▁kind": 2560,
      "unque": 2561,
      "▁miss": 2562,
      "▁Colle": 2563,
      "▁quar": 2564,
      "▁chang": 2565,
      "▁men": 2566,
      "uly": 2567,
      "▁ist": 2568,
      "▁specific": 2569,
      "bbero": 2570,
      "▁blog": 2571,
      "▁progetto": 2572,
      "ering": 2573,
      "▁sare": 2574,
      "lick": 2575,
      "una": 2576,
      "ording": 2577,
      "usto": 2578,
      "▁facil": 2579,
      "▁rip": 2580,
      "▁individual": 2581,
      "▁employ": 2582,
      "RA": 2583,
      "ats": 2584,
      "▁energ": 2585,
      "▁mach": 2586,
      "▁why": 2587,
      "▁allow": 2588,
      "yl": 2589,
      "ym": 2590,
      "rist": 2591,
      "▁cell": 2592,
      "urg": 2593,
      "imin": 2594,
      "getti": 2595,
      "eta": 2596,
      "fr": 2597,
      "▁away": 2598,
      "▁photo": 2599,
      "▁aziend": 2600,
      "cchi": 2601,
      "▁Dis": 2602,
      "ican": 2603,
      "omb": 2604,
      "▁price": 2605,
      "▁sw": 2606,
      "vembre": 2607,
      "▁conten": 2608,
      "▁share": 2609,
      "▁certain": 2610,
      "▁learn": 2611,
      "▁meg": 2612,
      "TA": 2613,
      "▁verso": 2614,
      "dis": 2615,
      "eto": 2616,
      "▁rice": 2617,
      "▁Mod": 2618,
      "▁partic": 2619,
      "▁riguard": 2620,
      "▁richies": 2621,
      "▁gest": 2622,
      "hod": 2623,
      "▁sever": 2624,
      "▁bra": 2625,
      "TE": 2626,
      "▁Gio": 2627,
      "▁needs": 2628,
      "▁presso": 2629,
      "jor": 2630,
      "▁sull": 2631,
      "▁tua": 2632,
      "▁press": 2633,
      "urezza": 2634,
      "▁enjo": 2635,
      "reg": 2636,
      "▁mem": 2637,
      "ee": 2638,
      "▁funzion": 2639,
      "table": 2640,
      "▁pross": 2641,
      "fied": 2642,
      "▁having": 2643,
      "▁particolare": 2644,
      "▁corso": 2645,
      "▁four": 2646,
      "▁condi": 2647,
      "▁Sa": 2648,
      "▁collabor": 2649,
      "US": 2650,
      "▁install": 2651,
      "▁queste": 2652,
      "▁whe": 2653,
      "▁region": 2654,
      "▁thing": 2655,
      "▁bit": 2656,
      "▁actually": 2657,
      "▁anim": 2658,
      "▁rela": 2659,
      "idi": 2660,
      "utes": 2661,
      "▁soprattutto": 2662,
      "▁tel": 2663,
      "▁Tut": 2664,
      "embre": 2665,
      "▁ricord": 2666,
      "tiva": 2667,
      "▁€": 2668,
      "▁anti": 2669,
      "▁char": 2670,
      "▁turn": 2671,
      "rire": 2672,
      "▁semb": 2673,
      "▁raggi": 2674,
      "▁numero": 2675,
      "ably": 2676,
      "rato": 2677,
      "▁Jan": 2678,
      "▁problem": 2679,
      "▁scu": 2680,
      "uno": 2681,
      "▁pan": 2682,
      "▁svol": 2683,
      "gether": 2684,
      "ada": 2685,
      "▁respon": 2686,
      "▁along": 2687,
      "ha": 2688,
      "▁times": 2689,
      "▁possible": 2690,
      "ape": 2691,
      "▁insieme": 2692,
      "▁cop": 2693,
      "▁software": 2694,
      "orld": 2695,
      "▁beh": 2696,
      "▁brand": 2697,
      "gere": 2698,
      "▁hist": 2699,
      "omp": 2700,
      "▁based": 2701,
      "ired": 2702,
      "aco": 2703,
      "▁says": 2704,
      "▁fur": 2705,
      "uring": 2706,
      "entire": 2707,
      "pped": 2708,
      "ugno": 2709,
      "▁thought": 2710,
      "issimo": 2711,
      "▁treat": 2712,
      "tazione": 2713,
      "icolo": 2714,
      "▁detail": 2715,
      "▁miglior": 2716,
      "tific": 2717,
      "▁elect": 2718,
      "▁often": 2719,
      "▁community": 2720,
      "▁esempio": 2721,
      "▁large": 2722,
      "▁mesi": 2723,
      "▁integ": 2724,
      "ogn": 2725,
      "▁rin": 2726,
      "▁siamo": 2727,
      "▁children": 2728,
      "asso": 2729,
      "▁nostri": 2730,
      "▁Chi": 2731,
      "▁glo": 2732,
      "▁multi": 2733,
      "▁However": 2734,
      "unta": 2735,
      "▁win": 2736,
      "▁categ": 2737,
      "▁Po": 2738,
      "viron": 2739,
      "▁diversi": 2740,
      "▁caratter": 2741,
      "▁buy": 2742,
      "▁cou": 2743,
      "▁mov": 2744,
      "▁focus": 2745,
      "unto": 2746,
      "olare": 2747,
      "▁ten": 2748,
      "atte": 2749,
      "uali": 2750,
      "▁strutt": 2751,
      "▁ecc": 2752,
      "zionali": 2753,
      "tembre": 2754,
      "▁PM": 2755,
      "▁prec": 2756,
      "▁low": 2757,
      "sw": 2758,
      "▁card": 2759,
      "ership": 2760,
      "▁ve": 2761,
      "▁negli": 2762,
      "ball": 2763,
      "▁importante": 2764,
      "▁società": 2765,
      "aring": 2766,
      "▁typ": 2767,
      "▁Red": 2768,
      "▁rad": 2769,
      "acqu": 2770,
      "urity": 2771,
      "▁Sep": 2772,
      "son": 2773,
      "fo": 2774,
      "▁discuss": 2775,
      "▁Ci": 2776,
      "▁Br": 2777,
      "▁pal": 2778,
      "▁Europe": 2779,
      "▁mia": 2780,
      "▁together": 2781,
      "▁Facebook": 2782,
      "illa": 2783,
      "ende": 2784,
      "▁ven": 2785,
      "▁prepar": 2786,
      "▁Us": 2787,
      "▁prodotto": 2788,
      "ource": 2789,
      "▁create": 2790,
      "▁ciò": 2791,
      "▁Gli": 2792,
      "perienza": 2793,
      "▁fer": 2794,
      "erson": 2795,
      "▁serie": 2796,
      "▁san": 2797,
      "▁Rev": 2798,
      "uff": 2799,
      "ocia": 2800,
      "▁piano": 2801,
      "▁name": 2802,
      "adre": 2803,
      "itter": 2804,
      "▁semplice": 2805,
      "▁capac": 2806,
      "iting": 2807,
      "▁means": 2808,
      "istica": 2809,
      "cy": 2810,
      "ttobre": 2811,
      "▁live": 2812,
      "ended": 2813,
      "gione": 2814,
      "▁job": 2815,
      "ready": 2816,
      "anz": 2817,
      "▁Cat": 2818,
      "▁preced": 2819,
      "▁rid": 2820,
      "▁posto": 2821,
      "▁makes": 2822,
      "IO": 2823,
      "▁night": 2824,
      "▁allo": 2825,
      "▁getting": 2826,
      "▁several": 2827,
      "▁John": 2828,
      "▁Not": 2829,
      "▁news": 2830,
      "▁·": 2831,
      "▁meglio": 2832,
      "▁Read": 2833,
      "▁um": 2834,
      "▁bi": 2835,
      "▁poco": 2836,
      "▁After": 2837,
      "idd": 2838,
      "▁view": 2839,
      "imm": 2840,
      "ilt": 2841,
      "▁forn": 2842,
      "▁fund": 2843,
      "anies": 2844,
      "wards": 2845,
      "▁Aug": 2846,
      "▁Milano": 2847,
      "duct": 2848,
      "pre": 2849,
      "▁trad": 2850,
      "▁Soci": 2851,
      "▁cittad": 2852,
      "▁volte": 2853,
      "▁AM": 2854,
      "▁side": 2855,
      "ones": 2856,
      "ched": 2857,
      "indows": 2858,
      "▁God": 2859,
      "mon": 2860,
      "▁livello": 2861,
      "▁Google": 2862,
      "▁move": 2863,
      "unci": 2864,
      "utions": 2865,
      "ager": 2866,
      "▁Bro": 2867,
      "iter": 2868,
      "aut": 2869,
      "▁fig": 2870,
      "▁mercato": 2871,
      "▁ill": 2872,
      "ges": 2873,
      "istiche": 2874,
      "ove": 2875,
      "▁sor": 2876,
      "▁Pu": 2877,
      "▁body": 2878,
      "osed": 2879,
      "ensive": 2880,
      "▁molti": 2881,
      "▁deal": 2882,
      "▁done": 2883,
      "▁Posted": 2884,
      "▁page": 2885,
      "ured": 2886,
      "inato": 2887,
      "▁sue": 2888,
      "▁potrebbe": 2889,
      "ror": 2890,
      "▁major": 2891,
      "ama": 2892,
      "▁vog": 2893,
      "▁become": 2894,
      "▁development": 2895,
      "rest": 2896,
      "ufact": 2897,
      "laim": 2898,
      "side": 2899,
      "oti": 2900,
      "iente": 2901,
      "artment": 2902,
      "eli": 2903,
      "▁diverse": 2904,
      "top": 2905,
      "▁acquis": 2906,
      "▁file": 2907,
      "HE": 2908,
      "▁following": 2909,
      "▁ago": 2910,
      "▁contact": 2911,
      "alk": 2912,
      "▁viol": 2913,
      "▁Dire": 2914,
      "▁quick": 2915,
      "▁ep": 2916,
      "naio": 2917,
      "▁possibilità": 2918,
      "▁Sono": 2919,
      "▁mac": 2920,
      "▁Ter": 2921,
      "ruct": 2922,
      "▁particular": 2923,
      "▁single": 2924,
      "agna": 2925,
      "▁already": 2926,
      "amenti": 2927,
      "▁prim": 2928,
      "ossi": 2929,
      "▁Es": 2930,
      "orse": 2931,
      "▁cookie": 2932,
      "▁until": 2933,
      "ba": 2934,
      "▁ord": 2935,
      "▁deg": 2936,
      "▁tanto": 2937,
      "▁osp": 2938,
      "eter": 2939,
      "▁Mi": 2940,
      "▁interess": 2941,
      "▁Dr": 2942,
      "▁purch": 2943,
      "vironment": 2944,
      "▁den": 2945,
      "▁intro": 2946,
      "▁clean": 2947,
      "▁season": 2948,
      "▁wr": 2949,
      "▁Sm": 2950,
      "ensione": 2951,
      "▁cand": 2952,
      "▁Thank": 2953,
      "verno": 2954,
      "▁perd": 2955,
      "▁prote": 2956,
      "▁ens": 2957,
      "▁enjoy": 2958,
      "▁bag": 2959,
      "▁key": 2960,
      "▁example": 2961,
      "elling": 2962,
      "▁interv": 2963,
      "alf": 2964,
      "uglio": 2965,
      "▁Gr": 2966,
      "▁enough": 2967,
      "▁respons": 2968,
      "earch": 2969,
      "▁country": 2970,
      "▁games": 2971,
      "▁frequ": 2972,
      "▁https": 2973,
      "▁months": 2974,
      "▁land": 2975,
      "▁short": 2976,
      "not": 2977,
      "▁grado": 2978,
      "▁sicurezza": 2979,
      "ald": 2980,
      "itore": 2981,
      "▁ps": 2982,
      "▁http": 2983,
      "▁left": 2984,
      "interno": 2985,
      "biet": 2986,
      "ensioni": 2987,
      "▁specif": 2988,
      "▁legge": 2989,
      "urance": 2990,
      "▁dol": 2991,
      "▁tipo": 2992,
      "ination": 2993,
      "▁others": 2994,
      "▁download": 2995,
      "▁cele": 2996,
      "▁network": 2997,
      "▁aveva": 2998,
      "▁tool": 2999,
      "▁future": 3000,
      "▁try": 3001,
      "ministr": 3002,
      "▁comes": 3003,
      "▁amo": 3004,
      "ources": 3005,
      "▁wa": 3006,
      "EC": 3007,
      "ersi": 3008,
      "back": 3009,
      "ardi": 3010,
      "incia": 3011,
      "▁rifer": 3012,
      "au": 3013,
      "abili": 3014,
      "▁saranno": 3015,
      "▁quasi": 3016,
      "▁bambini": 3017,
      "▁gre": 3018,
      "▁programma": 3019,
      "▁Pal": 3020,
      "▁method": 3021,
      "▁aud": 3022,
      "▁pati": 3023,
      "esc": 3024,
      "tro": 3025,
      "▁porta": 3026,
      "▁rom": 3027,
      "perty": 3028,
      "right": 3029,
      "▁corre": 3030,
      "▁spesso": 3031,
      "asse": 3032,
      "aw": 3033,
      "▁Camp": 3034,
      "▁conv": 3035,
      "fia": 3036,
      "uck": 3037,
      "».": 3038,
      "cle": 3039,
      "▁ever": 3040,
      "▁va": 3041,
      "▁doing": 3042,
      "▁Pe": 3043,
      "▁quelli": 3044,
      "az": 3045,
      "▁numer": 3046,
      "▁mind": 3047,
      "cover": 3048,
      "▁break": 3049,
      "▁perfect": 3050,
      "▁scar": 3051,
      "ither": 3052,
      "▁ambi": 3053,
      "▁autom": 3054,
      "▁content": 3055,
      "▁io": 3056,
      "▁identi": 3057,
      "▁across": 3058,
      "angu": 3059,
      "cer": 3060,
      "▁enter": 3061,
      "▁immag": 3062,
      "bbra": 3063,
      "▁detto": 3064,
      "Italia": 3065,
      "imon": 3066,
      "ray": 3067,
      "▁law": 3068,
      "play": 3069,
      "▁propria": 3070,
      "adem": 3071,
      "▁dip": 3072,
      "ights": 3073,
      "ef": 3074,
      "▁cris": 3075,
      "▁invol": 3076,
      "▁occas": 3077,
      "irus": 3078,
      "▁percent": 3079,
      "▁industry": 3080,
      "▁mean": 3081,
      "▁migliori": 3082,
      "▁hig": 3083,
      "▁offers": 3084,
      "▁interna": 3085,
      "▁didn": 3086,
      "bri": 3087,
      "OV": 3088,
      "▁pack": 3089,
      "UR": 3090,
      "▁recomm": 3091,
      "edì": 3092,
      "▁City": 3093,
      "ressi": 3094,
      "▁log": 3095,
      "▁extra": 3096,
      "sel": 3097,
      "▁Sk": 3098,
      "minist": 3099,
      "onto": 3100,
      "▁contr": 3101,
      "▁maggior": 3102,
      "▁farm": 3103,
      "▁noti": 3104,
      "ulla": 3105,
      "▁associ": 3106,
      "▁reason": 3107,
      "▁nuovi": 3108,
      "▁Cre": 3109,
      "amo": 3110,
      "arli": 3111,
      "▁Tor": 3112,
      "▁red": 3113,
      "stit": 3114,
      "▁sale": 3115,
      "olid": 3116,
      "▁larg": 3117,
      "egna": 3118,
      "ught": 3119,
      "▁segn": 3120,
      "▁type": 3121,
      "▁Ge": 3122,
      "ural": 3123,
      "allo": 3124,
      "▁companies": 3125,
      "irl": 3126,
      "aci": 3127,
      "▁AN": 3128,
      "▁Im": 3129,
      "▁sens": 3130,
      "▁grandi": 3131,
      "▁trovare": 3132,
      "▁cresc": 3133,
      "▁gioco": 3134,
      "▁abil": 3135,
      "▁idea": 3136,
      "▁though": 3137,
      "ardo": 3138,
      "▁review": 3139,
      "cci": 3140,
      "▁fis": 3141,
      "▁letter": 3142,
      "▁period": 3143,
      "▁story": 3144,
      "▁State": 3145,
      "▁color": 3146,
      "▁least": 3147,
      "▁immedi": 3148,
      "▁donne": 3149,
      "ising": 3150,
      "▁Aut": 3151,
      "rict": 3152,
      "arlo": 3153,
      "▁vista": 3154,
      "▁World": 3155,
      "▁Dep": 3156,
      "▁lui": 3157,
      "▁studio": 3158,
      "astic": 3159,
      "IM": 3160,
      "ila": 3161,
      "▁spieg": 3162,
      "▁marketing": 3163,
      "onte": 3164,
      "▁guid": 3165,
      "▁emer": 3166,
      "▁Ver": 3167,
      "▁ricon": 3168,
      "▁performance": 3169,
      "▁fore": 3170,
      "▁pubblico": 3171,
      "▁return": 3172,
      "fy": 3173,
      "▁hours": 3174,
      "▁million": 3175,
      "▁previs": 3176,
      "ppi": 3177,
      "▁United": 3178,
      "cher": 3179,
      "rese": 3180,
      "▁materi": 3181,
      "▁rend": 3182,
      "ife": 3183,
      "oung": 3184,
      "▁viv": 3185,
      "▁doesn": 3186,
      "▁milioni": 3187,
      "lect": 3188,
      "▁Dav": 3189,
      "▁space": 3190,
      "▁hold": 3191,
      "come": 3192,
      "▁Tag": 3193,
      "cl": 3194,
      "ised": 3195,
      "ulation": 3196,
      "ied": 3197,
      "▁Are": 3198,
      "▁Feb": 3199,
      "itato": 3200,
      "▁features": 3201,
      "vole": 3202,
      "▁study": 3203,
      "▁called": 3204,
      "ases": 3205,
      "▁Mus": 3206,
      "▁government": 3207,
      "▁settore": 3208,
      "▁pul": 3209,
      "ogra": 3210,
      "▁Now": 3211,
      "▁crus": 3212,
      "▁quelle": 3213,
      "▁Gro": 3214,
      "▁rema": 3215,
      "▁costru": 3216,
      "now": 3217,
      "▁city": 3218,
      "▁refer": 3219,
      "▁computer": 3220,
      "ettu": 3221,
      "▁rif": 3222,
      "▁Li": 3223,
      "▁gruppo": 3224,
      "▁Vi": 3225,
      "ester": 3226,
      "▁staff": 3227,
      "altro": 3228,
      "▁quel": 3229,
      "itale": 3230,
      "ecc": 3231,
      "aces": 3232,
      "▁York": 3233,
      "▁once": 3234,
      "▁territorio": 3235,
      "▁civ": 3236,
      "ional": 3237,
      "▁visto": 3238,
      "este": 3239,
      "▁sem": 3240,
      "▁gioc": 3241,
      "posta": 3242,
      "▁distrib": 3243,
      "▁origin": 3244,
      "▁value": 3245,
      "ordo": 3246,
      "auti": 3247,
      "▁field": 3248,
      "▁search": 3249,
      "▁management": 3250,
      "inare": 3251,
      "▁Imp": 3252,
      "▁contain": 3253,
      "iscono": 3254,
      "▁tax": 3255,
      "▁seguito": 3256,
      "▁American": 3257,
      "rol": 3258,
      "▁strong": 3259,
      "ghi": 3260,
      "otta": 3261,
      "▁altern": 3262,
      "▁Ho": 3263,
      "resso": 3264,
      "▁Em": 3265,
      "▁stamp": 3266,
      "▁March": 3267,
      "resa": 3268,
      "bbraio": 3269,
      "▁desc": 3270,
      "▁Vis": 3271,
      "arning": 3272,
      "▁cose": 3273,
      "▁tend": 3274,
      "▁fall": 3275,
      "▁ness": 3276,
      "▁alcune": 3277,
      "▁terra": 3278,
      "▁resta": 3279,
      "▁remo": 3280,
      "▁realtà": 3281,
      "ilia": 3282,
      "▁sin": 3283,
      "▁nuove": 3284,
      "▁@": 3285,
      "▁begin": 3286,
      "tr": 3287,
      "osci": 3288,
      "▁mani": 3289,
      "▁record": 3290,
      "Th": 3291,
      "▁vengono": 3292,
      "▁cra": 3293,
      "...]": 3294,
      "ula": 3295,
      "▁stessa": 3296,
      "▁charac": 3297,
      "▁tour": 3298,
      "LA": 3299,
      "▁fel": 3300,
      "▁sil": 3301,
      "▁Up": 3302,
      "▁periodo": 3303,
      "siasi": 3304,
      "▁later": 3305,
      "▁results": 3306,
      "ipment": 3307,
      "abilità": 3308,
      "▁started": 3309,
      "▁flo": 3310,
      "▁europe": 3311,
      "▁comment": 3312,
      "▁cod": 3313,
      "▁Prof": 3314,
      "▁writing": 3315,
      "arti": 3316,
      "▁various": 3317,
      "aly": 3318,
      "▁Ang": 3319,
      "▁dare": 3320,
      "vest": 3321,
      "▁rap": 3322,
      "ake": 3323,
      "▁gratu": 3324,
      "▁cuc": 3325,
      "▁improve": 3326,
      "▁tor": 3327,
      "▁TV": 3328,
      "▁vedere": 3329,
      "onder": 3330,
      "▁Gener": 3331,
      "▁ir": 3332,
      "▁hotel": 3333,
      "▁Ke": 3334,
      "ZION": 3335,
      "▁ril": 3336,
      "▁Sci": 3337,
      "▁personale": 3338,
      "▁face": 3339,
      "▁Oc": 3340,
      "▁campo": 3341,
      "▁standard": 3342,
      "▁rele": 3343,
      "duce": 3344,
      "▁zona": 3345,
      "ota": 3346,
      "▁famiglia": 3347,
      "▁Mag": 3348,
      "▁occup": 3349,
      "▁internet": 3350,
      "▁range": 3351,
      "arr": 3352,
      "▁AL": 3353,
      "estiv": 3354,
      "▁chall": 3355,
      "autiful": 3356,
      "▁vu": 3357,
      "▁customers": 3358,
      "▁persona": 3359,
      "▁davvero": 3360,
      "▁Del": 3361,
      "▁Some": 3362,
      "ality": 3363,
      "AP": 3364,
      "▁function": 3365,
      "▁bed": 3366,
      "imate": 3367,
      "▁dichi": 3368,
      "▁Just": 3369,
      "▁tab": 3370,
      "▁Cam": 3371,
      "▁aper": 3372,
      "▁bring": 3373,
      "▁Health": 3374,
      "▁presente": 3375,
      "umin": 3376,
      "▁address": 3377,
      "ived": 3378,
      "▁engine": 3379,
      "aking": 3380,
      "▁won": 3381,
      "▁bal": 3382,
      "▁yet": 3383,
      "▁everything": 3384,
      "▁pick": 3385,
      "▁guard": 3386,
      "▁technology": 3387,
      "IG": 3388,
      "reet": 3389,
      "▁upd": 3390,
      "▁Park": 3391,
      "▁subito": 3392,
      "ening": 3393,
      "ho": 3394,
      "▁Dopo": 3395,
      "▁dif": 3396,
      "▁question": 3397,
      "pris": 3398,
      "▁inser": 3399,
      "ledge": 3400,
      "▁ved": 3401,
      "▁issues": 3402,
      "ritti": 3403,
      "▁ur": 3404,
      "▁Cer": 3405,
      "asing": 3406,
      "▁Of": 3407,
      "▁presidente": 3408,
      "▁arri": 3409,
      "▁complete": 3410,
      "ado": 3411,
      "▁nav": 3412,
      "La": 3413,
      "uary": 3414,
      "itivo": 3415,
      "▁sei": 3416,
      "LE": 3417,
      "▁integr": 3418,
      "▁prezzo": 3419,
      "ened": 3420,
      "▁nome": 3421,
      "▁uffici": 3422,
      "▁stay": 3423,
      "▁women": 3424,
      "▁age": 3425,
      "mission": 3426,
      "▁qualsiasi": 3427,
      "tanto": 3428,
      "▁known": 3429,
      "▁propos": 3430,
      "▁June": 3431,
      "▁seconda": 3432,
      "▁fant": 3433,
      "▁sarebbe": 3434,
      "ability": 3435,
      "into": 3436,
      "atico": 3437,
      "▁tale": 3438,
      "itud": 3439,
      "omi": 3440,
      "▁resid": 3441,
      "▁Market": 3442,
      "▁Add": 3443,
      "▁members": 3444,
      "asta": 3445,
      "▁apr": 3446,
      "bra": 3447,
      "unch": 3448,
      "▁tram": 3449,
      "▁Ris": 3450,
      "▁common": 3451,
      "rebbero": 3452,
      "▁separ": 3453,
      "▁lungo": 3454,
      "▁front": 3455,
      "azz": 3456,
      "▁Here": 3457,
      "▁proper": 3458,
      "▁favor": 3459,
      "▁answ": 3460,
      "▁vinc": 3461,
      "▁Count": 3462,
      "kely": 3463,
      "pri": 3464,
      "We": 3465,
      "time": 3466,
      "▁options": 3467,
      "▁below": 3468,
      "▁came": 3469,
      "pper": 3470,
      "alla": 3471,
      "egno": 3472,
      "▁Cr": 3473,
      "ruction": 3474,
      "▁dato": 3475,
      "▁given": 3476,
      "rai": 3477,
      "▁friends": 3478,
      "▁Off": 3479,
      "▁arch": 3480,
      "▁sound": 3481,
      "▁South": 3482,
      "▁problema": 3483,
      "▁questions": 3484,
      "▁Will": 3485,
      "▁necessario": 3486,
      "▁spir": 3487,
      "▁etc": 3488,
      "▁above": 3489,
      "▁professional": 3490,
      "▁effettu": 3491,
      "▁environment": 3492,
      "▁early": 3493,
      "ppa": 3494,
      "▁final": 3495,
      "▁among": 3496,
      "▁Best": 3497,
      "▁mobile": 3498,
      "▁matter": 3499,
      "▁univers": 3500,
      "▁paren": 3501,
      "▁High": 3502,
      "▁sus": 3503,
      "▁April": 3504,
      "▁whether": 3505,
      "ube": 3506,
      "▁ey": 3507,
      "▁sembra": 3508,
      "oud": 3509,
      "▁pict": 3510,
      "▁Att": 3511,
      "▁enc": 3512,
      "▁appear": 3513,
      "▁torn": 3514,
      "tober": 3515,
      "▁[...]": 3516,
      "▁travel": 3517,
      "▁pen": 3518,
      "▁author": 3519,
      "▁Mc": 3520,
      "izzata": 3521,
      "▁Online": 3522,
      "▁taking": 3523,
      "▁settembre": 3524,
      "ention": 3525,
      "▁rate": 3526,
      "▁Anche": 3527,
      "▁cura": 3528,
      "lish": 3529,
      "▁property": 3530,
      "ppe": 3531,
      "vember": 3532,
      "▁detta": 3533,
      "urre": 3534,
      "irst": 3535,
      "▁Free": 3536,
      "icazioni": 3537,
      "▁dicembre": 3538,
      "place": 3539,
      "ecially": 3540,
      "▁near": 3541,
      "omini": 3542,
      "▁provides": 3543,
      "▁Black": 3544,
      "▁oss": 3545,
      "agine": 3546,
      "▁Je": 3547,
      "▁Op": 3548,
      "ublic": 3549,
      "▁Via": 3550,
      "▁manufact": 3551,
      "▁suggest": 3552,
      "▁Inf": 3553,
      "aging": 3554,
      "▁machine": 3555,
      "▁giugno": 3556,
      "fici": 3557,
      "▁works": 3558,
      "▁manif": 3559,
      "▁building": 3560,
      "aff": 3561,
      "▁decid": 3562,
      "ugg": 3563,
      "etter": 3564,
      "▁scelta": 3565,
      "▁Bra": 3566,
      "▁simple": 3567,
      "▁medi": 3568,
      "▁Har": 3569,
      "▁date": 3570,
      "▁fres": 3571,
      "▁mas": 3572,
      "▁relations": 3573,
      "▁Web": 3574,
      "icle": 3575,
      "inf": 3576,
      "▁pm": 3577,
      "getto": 3578,
      "OT": 3579,
      "igliore": 3580,
      "▁While": 3581,
      "▁track": 3582,
      "▁prend": 3583,
      "▁CON": 3584,
      "▁tell": 3585,
      "▁sper": 3586,
      "rete": 3587,
      "ty": 3588,
      "▁School": 3589,
      "▁tar": 3590,
      "▁compon": 3591,
      "▁smart": 3592,
      "▁required": 3593,
      "▁heart": 3594,
      "▁mot": 3595,
      "▁ling": 3596,
      "attro": 3597,
      "▁Chris": 3598,
      "▁energy": 3599,
      "▁sopra": 3600,
      "▁Fil": 3601,
      "zze": 3602,
      "illed": 3603,
      "icare": 3604,
      "usa": 3605,
      "eth": 3606,
      "▁punti": 3607,
      "▁sind": 3608,
      "▁document": 3609,
      "omes": 3610,
      "▁took": 3611,
      "ried": 3612,
      "▁Sol": 3613,
      "▁fuori": 3614,
      "▁mano": 3615,
      "▁comunque": 3616,
      "▁July": 3617,
      "IV": 3618,
      "▁training": 3619,
      "▁effici": 3620,
      "ilar": 3621,
      "though": 3622,
      "yd": 3623,
      "▁From": 3624,
      "altra": 3625,
      "▁poter": 3626,
      "aps": 3627,
      "▁Business": 3628,
      "tti": 3629,
      "▁marzo": 3630,
      "▁hai": 3631,
      "tember": 3632,
      "▁mese": 3633,
      "▁lat": 3634,
      "usi": 3635,
      "EO": 3636,
      "▁financial": 3637,
      "▁human": 3638,
      "▁tag": 3639,
      "bbiamo": 3640,
      "▁novembre": 3641,
      "▁minutes": 3642,
      "▁amount": 3643,
      "▁someone": 3644,
      "entr": 3645,
      "▁simply": 3646,
      "ectiv": 3647,
      "atform": 3648,
      "▁docu": 3649,
      "▁oil": 3650,
      "▁meas": 3651,
      "cosa": 3652,
      "enzia": 3653,
      "▁claim": 3654,
      "▁temper": 3655,
      "▁Air": 3656,
      "▁ban": 3657,
      "▁indi": 3658,
      "▁forte": 3659,
      "▁chiam": 3660,
      "ka": 3661,
      "):": 3662,
      "▁Work": 3663,
      "▁Christ": 3664,
      "▁further": 3665,
      "▁der": 3666,
      "eggi": 3667,
      "▁amp": 3668,
      "▁ottobre": 3669,
      "UN": 3670,
      "▁classi": 3671,
      "▁credit": 3672,
      "▁November": 3673,
      "itto": 3674,
      "▁sviluppo": 3675,
      "onus": 3676,
      "▁giud": 3677,
      "edia": 3678,
      "▁tradi": 3679,
      "▁went": 3680,
      "▁candid": 3681,
      "▁problemi": 3682,
      "orie": 3683,
      "ham": 3684,
      "▁rivol": 3685,
      "▁position": 3686,
      "▁Top": 3687,
      "▁whole": 3688,
      "ysis": 3689,
      "▁bad": 3690,
      "▁Sw": 3691,
      "▁vac": 3692,
      "ler": 3693,
      "▁confron": 3694,
      "▁bisogno": 3695,
      "vità": 3696,
      "▁micro": 3697,
      "▁causa": 3698,
      "▁prior": 3699,
      "▁du": 3700,
      "▁influ": 3701,
      "▁five": 3702,
      "▁seen": 3703,
      "vely": 3704,
      "fully": 3705,
      "▁October": 3706,
      "▁either": 3707,
      "▁sod": 3708,
      "▁successo": 3709,
      "▁vero": 3710,
      "vazione": 3711,
      "▁however": 3712,
      "▁Out": 3713,
      "issima": 3714,
      "AD": 3715,
      "▁scuola": 3716,
      "▁North": 3717,
      "▁quant": 3718,
      "icamente": 3719,
      "▁Book": 3720,
      "ker": 3721,
      "ands": 3722,
      "ivamente": 3723,
      "▁Day": 3724,
      "▁Ric": 3725,
      "▁sche": 3726,
      "▁store": 3727,
      "ams": 3728,
      "▁cookies": 3729,
      "blished": 3730,
      "An": 3731,
      "urch": 3732,
      "EG": 3733,
      "▁National": 3734,
      "▁scop": 3735,
      "▁vendita": 3736,
      "▁history": 3737,
      "▁January": 3738,
      "estival": 3739,
      "erra": 3740,
      "▁scegli": 3741,
      "▁size": 3742,
      "tra": 3743,
      "▁impact": 3744,
      "▁II": 3745,
      "AG": 3746,
      "--": 3747,
      "▁ww": 3748,
      "▁Nap": 3749,
      "▁gennaio": 3750,
      "▁self": 3751,
      "▁nazionale": 3752,
      "▁donna": 3753,
      "▁libro": 3754,
      "abb": 3755,
      "▁Mac": 3756,
      "▁paper": 3757,
      "▁hope": 3758,
      "▁evid": 3759,
      "▁bank": 3760,
      "▁ball": 3761,
      "▁Itali": 3762,
      "aving": 3763,
      "▁nor": 3764,
      "▁innov": 3765,
      "pond": 3766,
      "▁box": 3767,
      "▁--": 3768,
      "elef": 3769,
      "itted": 3770,
      "oca": 3771,
      "▁gestione": 3772,
      "▁migliore": 3773,
      "alo": 3774,
      "▁coll": 3775,
      "▁College": 3776,
      "▁host": 3777,
      "▁Fi": 3778,
      "ociazione": 3779,
      "▁id": 3780,
      "duzione": 3781,
      "▁dice": 3782,
      "cell": 3783,
      ");": 3784,
      "▁trova": 3785,
      "onom": 3786,
      "▁Most": 3787,
      "▁fron": 3788,
      "izzati": 3789,
      "▁www": 3790,
      "xim": 3791,
      "▁Frances": 3792,
      "ratto": 3793,
      "▁believe": 3794,
      "osse": 3795,
      "▁Supp": 3796,
      "▁firm": 3797,
      "▁Germ": 3798,
      "▁batter": 3799,
      "▁casino": 3800,
      "▁September": 3801,
      "▁Ri": 3802,
      "▁choose": 3803,
      "▁likely": 3804,
      "▁gius": 3805,
      "▁areas": 3806,
      "istenza": 3807,
      "▁sho": 3808,
      "▁Windows": 3809,
      "▁quite": 3810,
      "uper": 3811,
      "▁article": 3812,
      "ony": 3813,
      "▁Questa": 3814,
      "▁costitu": 3815,
      "ungere": 3816,
      "▁presenza": 3817,
      "▁fit": 3818,
      "NA": 3819,
      "Il": 3820,
      "aching": 3821,
      "▁sott": 3822,
      "▁text": 3823,
      "ema": 3824,
      "redi": 3825,
      "▁minuti": 3826,
      "anced": 3827,
      "▁close": 3828,
      "IP": 3829,
      "▁abs": 3830,
      "▁italiano": 3831,
      "af": 3832,
      "▁parole": 3833,
      "istico": 3834,
      "ouch": 3835,
      "▁chia": 3836,
      "▁Commun": 3837,
      "ression": 3838,
      "▁beautiful": 3839,
      "ides": 3840,
      "mazon": 3841,
      "▁anything": 3842,
      "▁casi": 3843,
      "▁series": 3844,
      "▁cause": 3845,
      "colo": 3846,
      "▁tramite": 3847,
      "▁consigli": 3848,
      "▁sat": 3849,
      "chè": 3850,
      "▁lasci": 3851,
      "ators": 3852,
      "▁DEL": 3853,
      "▁watch": 3854,
      "▁saf": 3855,
      "▁situazione": 3856,
      "▁Vol": 3857,
      "▁consegu": 3858,
      "▁Design": 3859,
      "▁Rom": 3860,
      "rem": 3861,
      "▁cut": 3862,
      "roid": 3863,
      "onti": 3864,
      "▁consent": 3865,
      "rip": 3866,
      "▁dagli": 3867,
      "▁needed": 3868,
      "▁clear": 3869,
      "▁coin": 3870,
      "▁option": 3871,
      "▁application": 3872,
      "▁Fri": 3873,
      "▁Arch": 3874,
      "▁sac": 3875,
      "▁troppo": 3876,
      "▁prevent": 3877,
      "▁popular": 3878,
      "▁dou": 3879,
      "▁expl": 3880,
      "▁LA": 3881,
      "ision": 3882,
      "ourn": 3883,
      "roll": 3884,
      "ggia": 3885,
      "▁office": 3886,
      "▁August": 3887,
      "isa": 3888,
      "tagon": 3889,
      "▁match": 3890,
      "▁yourself": 3891,
      "▁valore": 3892,
      "▁contem": 3893,
      "▁aggiorn": 3894,
      "▁ec": 3895,
      "▁please": 3896,
      "umb": 3897,
      "▁Priv": 3898,
      "▁significant": 3899,
      "▁produzione": 3900,
      "adra": 3901,
      "▁ang": 3902,
      "▁prest": 3903,
      "mai": 3904,
      "ored": 3905,
      "▁luglio": 3906,
      "▁trattamento": 3907,
      "▁pare": 3908,
      "▁almeno": 3909,
      "▁appre": 3910,
      "▁=": 3911,
      "▁phys": 3912,
      "▁black": 3913,
      "▁user": 3914,
      "▁matt": 3915,
      "bblig": 3916,
      "graph": 3917,
      "cont": 3918,
      "▁sele": 3919,
      "▁giovani": 3920,
      "ulter": 3921,
      "▁responsi": 3922,
      "▁nasc": 3923,
      "▁senso": 3924,
      "▁December": 3925,
      "▁model": 3926,
      "▁qualcosa": 3927,
      "▁problems": 3928,
      "istor": 3929,
      "▁IS": 3930,
      "▁vitt": 3931,
      "▁pred": 3932,
      "▁Bi": 3933,
      "▁Sch": 3934,
      "▁especially": 3935,
      "▁son": 3936,
      "▁wind": 3937,
      "▁Sil": 3938,
      "assa": 3939,
      "ING": 3940,
      "▁living": 3941,
      "▁Mr": 3942,
      "▁hot": 3943,
      "▁phone": 3944,
      "▁agree": 3945,
      "▁issue": 3946,
      "lin": 3947,
      "▁stagione": 3948,
      "▁esclus": 3949,
      "▁premi": 3950,
      "▁Down": 3951,
      "ners": 3952,
      "▁condizioni": 3953,
      "▁inoltre": 3954,
      "▁reading": 3955,
      "▁siano": 3956,
      "▁erano": 3957,
      "▁dam": 3958,
      "▁initi": 3959,
      "tead": 3960,
      "▁diritto": 3961,
      "▁increase": 3962,
      "▁spazio": 3963,
      "▁includes": 3964,
      "remo": 3965,
      "▁Super": 3966,
      "▁rev": 3967,
      "▁luogo": 3968,
      "▁definit": 3969,
      "tta": 3970,
      "▁bus": 3971,
      "▁virt": 3972,
      "▁ful": 3973,
      "▁young": 3974,
      "▁security": 3975,
      "▁settimana": 3976,
      "uk": 3977,
      "▁regard": 3978,
      "▁Play": 3979,
      "▁politica": 3980,
      "rel": 3981,
      "▁dent": 3982,
      "▁Set": 3983,
      "uge": 3984,
      "▁fem": 3985,
      "▁private": 3986,
      "essione": 3987,
      "▁aprile": 3988,
      "▁gas": 3989,
      "ison": 3990,
      "▁comune": 3991,
      "ettura": 3992,
      "▁amb": 3993,
      "▁customer": 3994,
      "odo": 3995,
      "▁everyone": 3996,
      "face": 3997,
      "▁futuro": 3998,
      "Ar": 3999,
      "reto": 4000,
      "▁entire": 4001,
      "▁pros": 4002,
      "▁natural": 4003,
      "▁corpo": 4004,
      "▁conven": 4005,
      "▁third": 4006,
      "new": 4007,
      "▁ach": 4008,
      "cast": 4009,
      "▁provided": 4010,
      "▁ce": 4011,
      "▁ways": 4012,
      "▁seem": 4013,
      "▁controll": 4014,
      "leg": 4015,
      "ualmente": 4016,
      "▁half": 4017,
      "▁Internet": 4018,
      "lam": 4019,
      "▁percorso": 4020,
      "▁Cos": 4021,
      "▁Mond": 4022,
      "▁bill": 4023,
      "ules": 4024,
      "ief": 4025,
      "▁recommend": 4026,
      "izing": 4027,
      "▁usually": 4028,
      "istic": 4029,
      "▁Hotel": 4030,
      "▁sales": 4031,
      "bit": 4032,
      "▁difficult": 4033,
      "atamente": 4034,
      "▁prem": 4035,
      "▁risk": 4036,
      "▁Mart": 4037,
      "tamento": 4038,
      "▁rete": 4039,
      "▁continue": 4040,
      "▁sensi": 4041,
      "▁termine": 4042,
      "▁Loc": 4043,
      "▁giornata": 4044,
      "▁tu": 4045,
      "▁policy": 4046,
      "▁almost": 4047,
      "▁avv": 4048,
      "▁material": 4049,
      "net": 4050,
      "▁India": 4051,
      "▁gam": 4052,
      "▁Center": 4053,
      "▁relationship": 4054,
      "▁avuto": 4055,
      "▁oppure": 4056,
      "▁puoi": 4057,
      "▁mie": 4058,
      "▁PC": 4059,
      "head": 4060,
      "▁ensure": 4061,
      "auto": 4062,
      ".)": 4063,
      "▁particip": 4064,
      "▁generale": 4065,
      "▁risultati": 4066,
      "▁formazione": 4067,
      "▁Fer": 4068,
      "▁Fire": 4069,
      "▁raccol": 4070,
      "▁sociale": 4071,
      "▁Cast": 4072,
      "Un": 4073,
      "▁Rober": 4074,
      "▁regol": 4075,
      "▁West": 4076,
      "▁Please": 4077,
      "▁Av": 4078,
      "▁isn": 4079,
      "▁added": 4080,
      "▁insurance": 4081,
      "EM": 4082,
      "lies": 4083,
      "UT": 4084,
      "▁general": 4085,
      "▁rig": 4086,
      "▁clienti": 4087,
      "▁presenti": 4088,
      "▁systems": 4089,
      "▁sport": 4090,
      "selves": 4091,
      "▁probably": 4092,
      "▁States": 4093,
      "▁equipment": 4094,
      "▁exist": 4095,
      "▁wall": 4096,
      "tty": 4097,
      "▁dog": 4098,
      "▁coun": 4099,
      "▁Quando": 4100,
      "odi": 4101,
      "▁limit": 4102,
      "ruary": 4103,
      "▁trying": 4104,
      "▁ester": 4105,
      "▁medic": 4106,
      "▁cio": 4107,
      "▁insp": 4108,
      "OC": 4109,
      "atorio": 4110,
      "▁iP": 4111,
      "rov": 4112,
      "▁strada": 4113,
      "zienda": 4114,
      "▁mant": 4115,
      "▁Ber": 4116,
      "rano": 4117,
      "ously": 4118,
      "gia": 4119,
      "▁vuole": 4120,
      "▁investi": 4121,
      "▁points": 4122,
      "▁Comune": 4123,
      "▁fast": 4124,
      "▁platform": 4125,
      "▁Spec": 4126,
      "▁preved": 4127,
      "▁America": 4128,
      "▁Andre": 4129,
      "aged": 4130,
      "▁Cook": 4131,
      "imoni": 4132,
      "▁told": 4133,
      "▁quattro": 4134,
      "▁studi": 4135,
      "▁conto": 4136,
      "▁ultimi": 4137,
      "▁previous": 4138,
      "▁dimost": 4139,
      "▁guida": 4140,
      "▁details": 4141,
      "▁soon": 4142,
      "▁plant": 4143,
      "▁utenti": 4144,
      "▁education": 4145,
      "St": 4146,
      "▁Giov": 4147,
      "▁dri": 4148,
      "omin": 4149,
      "ccio": 4150,
      "▁fail": 4151,
      "▁loss": 4152,
      "▁ge": 4153,
      "▁essay": 4154,
      "▁lic": 4155,
      "inta": 4156,
      "▁target": 4157,
      "▁Lond": 4158,
      "▁knowledge": 4159,
      "ava": 4160,
      "▁esta": 4161,
      "▁fo": 4162,
      "▁vent": 4163,
      "▁moder": 4164,
      "▁total": 4165,
      "anzia": 4166,
      "icato": 4167,
      "ande": 4168,
      "▁offici": 4169,
      "▁higher": 4170,
      "▁fondament": 4171,
      "▁cerc": 4172,
      "▁rapporto": 4173,
      "▁Get": 4174,
      "ishing": 4175,
      "▁coming": 4176,
      "▁request": 4177,
      "ago": 4178,
      "▁Twitter": 4179,
      "ging": 4180,
      "▁taken": 4181,
      "▁China": 4182,
      "▁nut": 4183,
      "bly": 4184,
      "▁bud": 4185,
      "▁pazi": 4186,
      "▁concern": 4187,
      "phone": 4188,
      "▁inn": 4189,
      "▁Amazon": 4190,
      "▁bian": 4191,
      "▁registr": 4192,
      "▁om": 4193,
      "▁Sub": 4194,
      "▁Bre": 4195,
      "biettivo": 4196,
      "▁expect": 4197,
      "▁stock": 4198,
      "▁similar": 4199,
      "▁riusc": 4200,
      "▁sb": 4201,
      "▁Gl": 4202,
      "▁location": 4203,
      "▁clos": 4204,
      "▁div": 4205,
      "▁molte": 4206,
      "ague": 4207,
      "▁communic": 4208,
      "oring": 4209,
      "med": 4210,
      "▁unique": 4211,
      "▁designed": 4212,
      "istro": 4213,
      "atiche": 4214,
      "▁assic": 4215,
      "▁depos": 4216,
      "▁Ha": 4217,
      "▁road": 4218,
      "▁musica": 4219,
      "▁treatment": 4220,
      "ostante": 4221,
      "ient": 4222,
      "nia": 4223,
      "▁Austr": 4224,
      "▁struct": 4225,
      "▁Micro": 4226,
      "istem": 4227,
      "▁Group": 4228,
      "ultimo": 4229,
      "uomo": 4230,
      "▁ov": 4231,
      "▁finanzi": 4232,
      "▁veh": 4233,
      "ancia": 4234,
      "▁action": 4235,
      "ologie": 4236,
      "▁foot": 4237,
      "orsi": 4238,
      "▁Grand": 4239,
      "▁coinvol": 4240,
      "▁finanzia": 4241,
      "▁February": 4242,
      "▁digital": 4243,
      "▁Ul": 4244,
      "CH": 4245,
      "▁House": 4246,
      "▁Was": 4247,
      "▁stop": 4248,
      "▁assol": 4249,
      "▁users": 4250,
      "▁note": 4251,
      "▁Ben": 4252,
      "▁deliver": 4253,
      "▁camera": 4254,
      "ension": 4255,
      "▁mix": 4256,
      "▁incontri": 4257,
      "onda": 4258,
      "▁subject": 4259,
      "▁according": 4260,
      "▁creare": 4261,
      "▁accomp": 4262,
      "rog": 4263,
      "▁controllo": 4264,
      "ector": 4265,
      "▁worth": 4266,
      "itional": 4267,
      "▁andare": 4268,
      "▁contract": 4269,
      "▁vacc": 4270,
      "▁partire": 4271,
      "asto": 4272,
      "▁primi": 4273,
      "▁band": 4274,
      "▁drive": 4275,
      "▁partner": 4276,
      "▁Tur": 4277,
      "▁Techn": 4278,
      "itting": 4279,
      "ender": 4280,
      "▁learning": 4281,
      "▁seri": 4282,
      "▁First": 4283,
      "▁else": 4284,
      "▁medical": 4285,
      "endere": 4286,
      "▁mat": 4287,
      "▁serve": 4288,
      "▁navig": 4289,
      "▁intell": 4290,
      "▁finale": 4291,
      "enda": 4292,
      "ciare": 4293,
      "▁Comun": 4294,
      "ule": 4295,
      "▁Contin": 4296,
      "▁Mol": 4297,
      "▁Mal": 4298,
      "▁ottenere": 4299,
      "aby": 4300,
      "▁din": 4301,
      "▁changes": 4302,
      "▁Gen": 4303,
      "▁aument": 4304,
      "▁players": 4305,
      "▁buona": 4306,
      "▁batt": 4307,
      "▁wonder": 4308,
      "▁mezzo": 4309,
      "▁screen": 4310,
      "bum": 4311,
      "▁inside": 4312,
      "▁additional": 4313,
      "▁doll": 4314,
      "▁style": 4315,
      "▁prep": 4316,
      "ban": 4317,
      "wood": 4318,
      "▁forward": 4319,
      "my": 4320,
      "enziale": 4321,
      "▁excell": 4322,
      "▁protagon": 4323,
      "▁role": 4324,
      "▁pochi": 4325,
      "▁rischio": 4326,
      "▁represent": 4327,
      "▁febbraio": 4328,
      "▁vel": 4329,
      "utare": 4330,
      "asti": 4331,
      "▁Dal": 4332,
      "▁titolo": 4333,
      "▁tech": 4334,
      "where": 4335,
      "▁Mass": 4336,
      "▁AC": 4337,
      "▁chies": 4338,
      "hone": 4339,
      "▁forse": 4340,
      "▁telef": 4341,
      "▁fire": 4342,
      "iving": 4343,
      "▁step": 4344,
      "▁growth": 4345,
      "▁announ": 4346,
      "▁bott": 4347,
      "▁Over": 4348,
      "ilo": 4349,
      "▁esperienza": 4350,
      "missione": 4351,
      "atory": 4352,
      "▁cro": 4353,
      "▁Trans": 4354,
      "atro": 4355,
      "disf": 4356,
      "arci": 4357,
      "▁commerci": 4358,
      "▁Rel": 4359,
      "▁Bel": 4360,
      "▁character": 4361,
      "▁Ann": 4362,
      "▁monitor": 4363,
      "▁rather": 4364,
      "itari": 4365,
      "▁potential": 4366,
      "▁conclus": 4367,
      "▁spor": 4368,
      "▁feed": 4369,
      "cipl": 4370,
      "organ": 4371,
      "▁ros": 4372,
      "▁km": 4373,
      "ties": 4374,
      "ires": 4375,
      "arth": 4376,
      "▁viaggio": 4377,
      "osso": 4378,
      "▁exact": 4379,
      "▁manc": 4380,
      "▁obs": 4381,
      "izioni": 4382,
      "▁squadra": 4383,
      "Al": 4384,
      "tura": 4385,
      "▁clic": 4386,
      "▁production": 4387,
      "▁stress": 4388,
      "▁regular": 4389,
      "▁fronte": 4390,
      "▁IL": 4391,
      "uramente": 4392,
      "▁opportunity": 4393,
      "▁UK": 4394,
      "▁Lab": 4395,
      "▁His": 4396,
      "ives": 4397,
      "oo": 4398,
      "▁tempi": 4399,
      "▁running": 4400,
      "▁ruolo": 4401,
      "unn": 4402,
      "uli": 4403,
      "▁weight": 4404,
      "▁scritto": 4405,
      "year": 4406,
      "▁gradu": 4407,
      "▁International": 4408,
      "▁Blog": 4409,
      "util": 4410,
      "▁events": 4411,
      "▁Napoli": 4412,
      "▁takes": 4413,
      "igr": 4414,
      "▁luce": 4415,
      "▁struttura": 4416,
      "▁sle": 4417,
      "▁piace": 4418,
      "rale": 4419,
      "▁disposizione": 4420,
      "CA": 4421,
      "▁Feder": 4422,
      "▁recogn": 4423,
      "▁Mad": 4424,
      "▁Mich": 4425,
      "▁tratt": 4426,
      "▁importanti": 4427,
      "▁annunci": 4428,
      "PS": 4429,
      "duction": 4430,
      "mas": 4431,
      "▁ST": 4432,
      "▁minim": 4433,
      "▁tanti": 4434,
      "▁gain": 4435,
      "▁italiana": 4436,
      "asp": 4437,
      "▁feature": 4438,
      "▁linea": 4439,
      "▁Lib": 4440,
      "▁ask": 4441,
      "▁IT": 4442,
      "lied": 4443,
      "▁cav": 4444,
      "▁programs": 4445,
      "▁party": 4446,
      "▁recent": 4447,
      "action": 4448,
      "▁pretty": 4449,
      "▁gold": 4450,
      "▁wanted": 4451,
      "▁Dio": 4452,
      "▁Program": 4453,
      "▁true": 4454,
      "▁weeks": 4455,
      "▁six": 4456,
      "▁student": 4457,
      "occup": 4458,
      "▁pagina": 4459,
      "orti": 4460,
      "▁Direct": 4461,
      "▁letto": 4462,
      "▁processo": 4463,
      "▁ulter": 4464,
      "▁Cond": 4465,
      "▁Pat": 4466,
      "▁Mer": 4467,
      "▁throughout": 4468,
      "▁items": 4469,
      "▁Ev": 4470,
      "▁Service": 4471,
      "▁nego": 4472,
      "▁Tre": 4473,
      "▁white": 4474,
      "▁effetti": 4475,
      "▁block": 4476,
      "▁lay": 4477,
      "▁vanta": 4478,
      "▁Gold": 4479,
      "▁salute": 4480,
      "eric": 4481,
      "▁offre": 4482,
      "▁sell": 4483,
      "ficazione": 4484,
      "▁easily": 4485,
      "cription": 4486,
      "▁kids": 4487,
      "urale": 4488,
      "▁leggere": 4489,
      "anco": 4490,
      "eremo": 4491,
      "ministrazione": 4492,
      "▁capacità": 4493,
      "ZIONE": 4494,
      "▁Na": 4495,
      "▁currently": 4496,
      "▁convers": 4497,
      "based": 4498,
      "▁stabil": 4499,
      "▁fanno": 4500,
      "▁created": 4501,
      "▁Pot": 4502,
      "▁tim": 4503,
      "▁veg": 4504,
      "▁AS": 4505,
      "▁Every": 4506,
      "▁vig": 4507,
      "orsa": 4508,
      "tazioni": 4509,
      "▁aziende": 4510,
      "ancio": 4511,
      "▁Met": 4512,
      "izzo": 4513,
      "entemente": 4514,
      "▁fotogra": 4515,
      "▁sti": 4516,
      "bon": 4517,
      "▁club": 4518,
      "▁skills": 4519,
      "PR": 4520,
      "▁consul": 4521,
      "▁cy": 4522,
      "▁PER": 4523,
      "▁receive": 4524,
      "▁words": 4525,
      "▁amm": 4526,
      "▁scen": 4527,
      "▁svilupp": 4528,
      "▁cittadini": 4529,
      "▁cuore": 4530,
      "▁crusher": 4531,
      "cuno": 4532,
      "▁varia": 4533,
      "ppia": 4534,
      "▁richiesta": 4535,
      "▁outside": 4536,
      "▁industri": 4537,
      "UL": 4538,
      "▁System": 4539,
      "itchen": 4540,
      "▁ready": 4541,
      "▁Ti": 4542,
      "orr": 4543,
      "▁tema": 4544,
      "▁Sic": 4545,
      "▁cart": 4546,
      "fit": 4547,
      "▁sum": 4548,
      "ground": 4549,
      "▁possa": 4550,
      "▁risol": 4551,
      "iner": 4552,
      "oura": 4553,
      "iglie": 4554,
      "▁choice": 4555,
      "hib": 4556,
      "▁maintain": 4557,
      "▁modif": 4558,
      "▁clin": 4559,
      "abato": 4560,
      "▁devono": 4561,
      "▁answer": 4562,
      "▁global": 4563,
      "▁riferimento": 4564,
      "▁arg": 4565,
      "__": 4566,
      "▁Er": 4567,
      "▁activities": 4568,
      "▁Ecco": 4569,
      "▁sed": 4570,
      "erve": 4571,
      "▁practice": 4572,
      "▁Nella": 4573,
      "▁Photo": 4574,
      "▁County": 4575,
      "▁lower": 4576,
      "▁dichiar": 4577,
      "ache": 4578,
      "▁variety": 4579,
      "lood": 4580,
      "▁mare": 4581,
      "▁Maria": 4582,
      "▁skin": 4583,
      "xy": 4584,
      "▁posizione": 4585,
      "▁Prov": 4586,
      "▁nostre": 4587,
      "▁UN": 4588,
      "vista": 4589,
      "put": 4590,
      "▁War": 4591,
      "▁info": 4592,
      "▁longer": 4593,
      "▁cannot": 4594,
      "▁siti": 4595,
      "onta": 4596,
      "▁brows": 4597,
      "▁books": 4598,
      "ami": 4599,
      "▁Tel": 4600,
      "▁Rem": 4601,
      "▁certo": 4602,
      "▁riguarda": 4603,
      "CO": 4604,
      "▁apply": 4605,
      "▁Bas": 4606,
      "▁uomo": 4607,
      "▁Mont": 4608,
      "▁forza": 4609,
      "ends": 4610,
      "▁types": 4611,
      "▁visual": 4612,
      "▁cambia": 4613,
      "▁scorso": 4614,
      "▁buon": 4615,
      "▁vide": 4616,
      "▁ormai": 4617,
      "▁direttamente": 4618,
      "board": 4619,
      "▁asked": 4620,
      "▁related": 4621,
      "istra": 4622,
      "▁Cle": 4623,
      "▁couple": 4624,
      "▁genere": 4625,
      "▁speak": 4626,
      "▁fosse": 4627,
      "▁fase": 4628,
      "▁display": 4629,
      "▁terms": 4630,
      "▁shows": 4631,
      "▁implement": 4632,
      "▁smo": 4633,
      "▁sint": 4634,
      "▁colleg": 4635,
      "▁nice": 4636,
      "▁Inoltre": 4637,
      "ax": 4638,
      "oline": 4639,
      "▁macch": 4640,
      "ov": 4641,
      "▁college": 4642,
      "▁quad": 4643,
      "anguage": 4644,
      "▁usc": 4645,
      "enced": 4646,
      "▁version": 4647,
      "▁opin": 4648,
      "ospital": 4649,
      "ift": 4650,
      "▁collaborazione": 4651,
      "▁Her": 4652,
      "▁compl": 4653,
      "▁necessary": 4654,
      "void": 4655,
      "▁decision": 4656,
      "▁paese": 4657,
      "▁allora": 4658,
      "▁fol": 4659,
      "▁modern": 4660,
      "orning": 4661,
      "mazing": 4662,
      "▁patients": 4663,
      "iring": 4664,
      "▁Anton": 4665,
      "▁English": 4666,
      "▁About": 4667,
      "▁code": 4668,
      "▁ability": 4669,
      "▁leader": 4670,
      "▁device": 4671,
      "▁alto": 4672,
      "▁male": 4673,
      "anci": 4674,
      "▁happy": 4675,
      "▁anyone": 4676,
      "▁soddisf": 4677,
      "▁liqu": 4678,
      "▁hon": 4679,
      "ournal": 4680,
      "ridge": 4681,
      "▁rock": 4682,
      "▁governo": 4683,
      "▁facile": 4684,
      "▁ground": 4685,
      "▁Cour": 4686,
      "▁accept": 4687,
      "rup": 4688,
      "▁Also": 4689,
      "orren": 4690,
      "▁pain": 4691,
      "itivi": 4692,
      "▁Services": 4693,
      "▁tent": 4694,
      "▁eventi": 4695,
      "▁trading": 4696,
      "▁mark": 4697,
      "▁bonus": 4698,
      "▁clients": 4699,
      "▁original": 4700,
      "▁collect": 4701,
      "▁exam": 4702,
      "▁corret": 4703,
      "▁seems": 4704,
      "▁Auto": 4705,
      "uzioni": 4706,
      "▁Wed": 4707,
      "▁pelle": 4708,
      "▁nothing": 4709,
      "▁capire": 4710,
      "▁lun": 4711,
      "dy": 4712,
      "ville": 4713,
      "▁sites": 4714,
      "inding": 4715,
      "▁arti": 4716,
      "▁Gre": 4717,
      "▁Indi": 4718,
      "ki": 4719,
      "▁ragazzi": 4720,
      "▁Dem": 4721,
      "▁behind": 4722,
      "▁girl": 4723,
      "▁quickly": 4724,
      "olf": 4725,
      "▁stile": 4726,
      "▁upon": 4727,
      "▁effective": 4728,
      "▁sede": 4729,
      "▁dovrebbe": 4730,
      "▁Fam": 4731,
      "omma": 4732,
      "▁Nov": 4733,
      "▁disponibile": 4734,
      "▁spetta": 4735,
      "▁emerg": 4736,
      "▁Rad": 4737,
      "iso": 4738,
      "iler": 4739,
      "tor": 4740,
      "▁expla": 4741,
      "▁elev": 4742,
      "rate": 4743,
      "iction": 4744,
      "fico": 4745,
      "▁utilizzare": 4746,
      "ros": 4747,
      "ccia": 4748,
      "ints": 4749,
      "PA": 4750,
      "DA": 4751,
      "▁center": 4752,
      "anzi": 4753,
      "▁latest": 4754,
      "▁benefits": 4755,
      "▁consist": 4756,
      "su": 4757,
      "▁Port": 4758,
      "▁commiss": 4759,
      "ionato": 4760,
      "▁modello": 4761,
      "fond": 4762,
      "▁member": 4763,
      "▁fatt": 4764,
      "▁Green": 4765,
      "formation": 4766,
      "▁bio": 4767,
      "▁career": 4768,
      "▁risposta": 4769,
      "aced": 4770,
      "▁nulla": 4771,
      "tic": 4772,
      "ips": 4773,
      "frica": 4774,
      "▁extre": 4775,
      "▁cucina": 4776,
      "▁solid": 4777,
      "▁agg": 4778,
      "▁cases": 4779,
      "▁mand": 4780,
      "▁esig": 4781,
      "▁excellent": 4782,
      "light": 4783,
      "▁requirements": 4784,
      "▁effic": 4785,
      "▁moment": 4786,
      "ops": 4787,
      "ological": 4788,
      "▁Dist": 4789,
      "▁fid": 4790,
      "▁alta": 4791,
      "▁uomini": 4792,
      "▁italiani": 4793,
      "▁tuoi": 4794,
      "▁appar": 4795,
      "ceed": 4796,
      "▁natura": 4797,
      "oman": 4798,
      "box": 4799,
      "▁spl": 4800,
      "otidi": 4801,
      "▁costo": 4802,
      "acqua": 4803,
      "▁exper": 4804,
      "▁purchase": 4805,
      "▁wide": 4806,
      "rice": 4807,
      "▁maggiore": 4808,
      "isl": 4809,
      "▁Grazie": 4810,
      "▁lei": 4811,
      "lie": 4812,
      "▁received": 4813,
      "▁Cali": 4814,
      "erap": 4815,
      "eranno": 4816,
      "▁Char": 4817,
      "▁dating": 4818,
      "▁costs": 4819,
      "▁Cost": 4820,
      "▁leave": 4821,
      "▁Stato": 4822,
      "off": 4823,
      "▁certific": 4824,
      "arte": 4825,
      "▁Apple": 4826,
      "▁prova": 4827,
      "key": 4828,
      "▁principali": 4829,
      "▁volont": 4830,
      "ford": 4831,
      "▁stret": 4832,
      "▁crescita": 4833,
      "▁star": 4834,
      "▁Thanks": 4835,
      "MA": 4836,
      "▁entro": 4837,
      "▁describ": 4838,
      "▁PD": 4839,
      "▁Good": 4840,
      "▁Associ": 4841,
      "nes": 4842,
      "issimi": 4843,
      "lav": 4844,
      "▁agosto": 4845,
      "arden": 4846,
      "▁Francesco": 4847,
      "▁PR": 4848,
      "▁nello": 4849,
      "epend": 4850,
      "▁chance": 4851,
      "rad": 4852,
      "▁driv": 4853,
      "Wh": 4854,
      "body": 4855,
      "TM": 4856,
      "▁bir": 4857,
      "▁Well": 4858,
      "',": 4859,
      "▁misura": 4860,
      "bol": 4861,
      "▁Lav": 4862,
      "▁board": 4863,
      "▁sistem": 4864,
      "▁located": 4865,
      "▁gran": 4866,
      "▁talk": 4867,
      "▁materials": 4868,
      "▁esper": 4869,
      "▁Then": 4870,
      "▁Why": 4871,
      "reng": 4872,
      "▁aliment": 4873,
      "soft": 4874,
      "cel": 4875,
      "▁risultato": 4876,
      "vey": 4877,
      "▁ple": 4878,
      "▁Nat": 4879,
      "cere": 4880,
      "hold": 4881,
      "inazione": 4882,
      "▁labor": 4883,
      "TER": 4884,
      "ashion": 4885,
      "gn": 4886,
      "▁lavori": 4887,
      "osing": 4888,
      "▁conditions": 4889,
      "ils": 4890,
      "▁ideas": 4891,
      "▁elimin": 4892,
      "▁earn": 4893,
      "rength": 4894,
      "▁solution": 4895,
      "▁passato": 4896,
      "▁playing": 4897,
      "▁prime": 4898,
      "▁analy": 4899,
      "inese": 4900,
      "▁voi": 4901,
      "sto": 4902,
      "▁discover": 4903,
      "anna": 4904,
      "▁peso": 4905,
      "▁amici": 4906,
      "▁projects": 4907,
      "azienda": 4908,
      "▁permette": 4909,
      "▁compless": 4910,
      "▁certainly": 4911,
      "▁international": 4912,
      "▁write": 4913,
      "▁stream": 4914,
      "▁piccolo": 4915,
      "▁concer": 4916,
      "iddle": 4917,
      "ui": 4918,
      "oghi": 4919,
      "▁reci": 4920,
      "weet": 4921,
      "inted": 4922,
      "atrice": 4923,
      "▁analysis": 4924,
      "▁domanda": 4925,
      "fort": 4926,
      "▁Bec": 4927,
      "▁fab": 4928,
      "▁quotidi": 4929,
      "▁leading": 4930,
      "attività": 4931,
      "▁held": 4932,
      "▁challeng": 4933,
      "▁Gar": 4934,
      "▁obtain": 4935,
      "▁approach": 4936,
      "pon": 4937,
      "aling": 4938,
      "▁comunicazione": 4939,
      "▁speed": 4940,
      "▁versione": 4941,
      "wise": 4942,
      "▁locali": 4943,
      "aign": 4944,
      "▁inj": 4945,
      "▁Pubblic": 4946,
      "▁raff": 4947,
      "▁cool": 4948,
      "ruzione": 4949,
      "▁sess": 4950,
      "▁vec": 4951,
      "▁Act": 4952,
      "▁ones": 4953,
      "▁remember": 4954,
      "▁eserc": 4955,
      "anch": 4956,
      "▁belle": 4957,
      "▁source": 4958,
      "onia": 4959,
      "▁modalità": 4960,
      "▁cast": 4961,
      "▁internazionale": 4962,
      "▁Regione": 4963,
      "▁Cur": 4964,
      "▁meeting": 4965,
      "▁allows": 4966,
      "▁articolo": 4967,
      "▁istitu": 4968,
      "ster": 4969,
      "▁pad": 4970,
      "▁mostra": 4971,
      "ox": 4972,
      "ming": 4973,
      "esco": 4974,
      "▁safe": 4975,
      "TR": 4976,
      "▁built": 4977,
      "▁perchè": 4978,
      "▁emo": 4979,
      "itamente": 4980,
      "▁mention": 4981,
      "▁Educ": 4982,
      "IR": 4983,
      "▁parts": 4984,
      "atives": 4985,
      "udi": 4986,
      "▁Power": 4987,
      "▁<": 4988,
      "▁recently": 4989,
      "isto": 4990,
      "anding": 4991,
      "umi": 4992,
      "▁prezzi": 4993,
      "▁death": 4994,
      "▁Friday": 4995,
      "▁occhi": 4996,
      "▁Muse": 4997,
      "▁appena": 4998,
      "▁Any": 4999,
      "▁dro": 5000,
      "▁ricev": 5001,
      "cing": 5002,
      "▁positive": 5003,
      "▁Ir": 5004,
      "asons": 5005,
      "▁town": 5006,
      "▁carta": 5007,
      "itazione": 5008,
      "down": 5009,
      "▁sapere": 5010,
      "utting": 5011,
      "SA": 5012,
      "ests": 5013,
      "▁goal": 5014,
      "▁immagini": 5015,
      "▁Consiglio": 5016,
      "▁famil": 5017,
      "▁cultura": 5018,
      "oglie": 5019,
      "▁seek": 5020,
      "hood": 5021,
      "▁difficile": 5022,
      "▁fort": 5023,
      "▁plans": 5024,
      "orge": 5025,
      "!!!": 5026,
      "▁tools": 5027,
      "▁chat": 5028,
      "▁prosp": 5029,
      "▁safety": 5030,
      "ections": 5031,
      "▁rile": 5032,
      "▁totale": 5033,
      "▁tav": 5034,
      "▁President": 5035,
      "tian": 5036,
      "▁resist": 5037,
      "▁multiple": 5038,
      "▁scienti": 5039,
      "▁roll": 5040,
      "▁soluzione": 5041,
      "ressione": 5042,
      "▁THE": 5043,
      "▁salv": 5044,
      "rag": 5045,
      "▁Dig": 5046,
      "▁Fab": 5047,
      "▁King": 5048,
      "▁legal": 5049,
      "▁Privacy": 5050,
      "▁click": 5051,
      "▁looks": 5052,
      "atrimon": 5053,
      "▁wood": 5054,
      "Ass": 5055,
      "▁heav": 5056,
      "▁vostro": 5057,
      "ted": 5058,
      "rizzo": 5059,
      "▁image": 5060,
      "ades": 5061,
      "▁fix": 5062,
      "▁David": 5063,
      "ky": 5064,
      "▁levels": 5065,
      "▁dipend": 5066,
      "▁Russ": 5067,
      "essere": 5068,
      "▁hair": 5069,
      "fficio": 5070,
      "▁pensi": 5071,
      "▁tran": 5072,
      "▁restaur": 5073,
      "ecuti": 5074,
      "bers": 5075,
      "bu": 5076,
      "▁Develop": 5077,
      "enuto": 5078,
      "▁round": 5079,
      "▁budget": 5080,
      "▁bell": 5081,
      "iture": 5082,
      "▁Android": 5083,
      "▁Conc": 5084,
      "estra": 5085,
      "▁table": 5086,
      "▁contempor": 5087,
      "▁Data": 5088,
      "▁aiut": 5089,
      "▁included": 5090,
      "▁mettere": 5091,
      "▁Sl": 5092,
      "TION": 5093,
      "rap": 5094,
      "area": 5095,
      "▁autor": 5096,
      "ocrat": 5097,
      "▁save": 5098,
      "▁cm": 5099,
      "▁comments": 5100,
      "Ch": 5101,
      "▁assess": 5102,
      "▁disponibili": 5103,
      "ultima": 5104,
      "▁Mess": 5105,
      "isco": 5106,
      "▁green": 5107,
      "▁continua": 5108,
      "ael": 5109,
      "▁prossimo": 5110,
      "▁national": 5111,
      "iori": 5112,
      "▁promo": 5113,
      "ologico": 5114,
      "▁Many": 5115,
      "▁caratteristiche": 5116,
      "atrimonio": 5117,
      "▁stim": 5118,
      "▁Real": 5119,
      "coin": 5120,
      "▁Tod": 5121,
      "andem": 5122,
      "▁cic": 5123,
      "▁stampa": 5124,
      "raft": 5125,
      "▁prices": 5126,
      "▁investig": 5127,
      "vanti": 5128,
      "▁Est": 5129,
      "Ne": 5130,
      "▁ton": 5131,
      "▁ring": 5132,
      "▁sos": 5133,
      "▁cash": 5134,
      "▁scon": 5135,
      "▁scegliere": 5136,
      "▁Research": 5137,
      "▁?": 5138,
      "▁recuper": 5139,
      "accia": 5140,
      "▁personali": 5141,
      "enne": 5142,
      "▁appl": 5143,
      "▁legg": 5144,
      "▁Policy": 5145,
      "irà": 5146,
      "atici": 5147,
      "▁affid": 5148,
      "▁USA": 5149,
      "▁lab": 5150,
      "▁Club": 5151,
      "isione": 5152,
      "▁punt": 5153,
      "▁client": 5154,
      "▁credito": 5155,
      "pm": 5156,
      "▁archit": 5157,
      "▁touch": 5158,
      "▁average": 5159,
      "▁dise": 5160,
      "▁obblig": 5161,
      "arla": 5162,
      "▁coordin": 5163,
      "tezza": 5164,
      "▁Sim": 5165,
      "▁deep": 5166,
      "▁pes": 5167,
      "▁countries": 5168,
      "▁AP": 5169,
      "asci": 5170,
      "▁dunque": 5171,
      "▁amazing": 5172,
      "▁flow": 5173,
      "▁highly": 5174,
      "ees": 5175,
      "▁individuals": 5176,
      "▁expert": 5177,
      "▁decor": 5178,
      "▁imprese": 5179,
      "▁Person": 5180,
      "▁diritti": 5181,
      "▁strumenti": 5182,
      "▁guide": 5183,
      "alu": 5184,
      "▁celebr": 5185,
      "▁pure": 5186,
      "itte": 5187,
      "▁reviews": 5188,
      "▁bil": 5189,
      "ALE": 5190,
      "▁hy": 5191,
      "ctive": 5192,
      "urazione": 5193,
      "eti": 5194,
      "▁Great": 5195,
      "▁Coun": 5196,
      "uth": 5197,
      "▁infer": 5198,
      "▁Mill": 5199,
      "aches": 5200,
      "oul": 5201,
      "▁supply": 5202,
      "gin": 5203,
      "▁resources": 5204,
      "▁Term": 5205,
      "▁Even": 5206,
      "abilmente": 5207,
      "▁vot": 5208,
      "▁Cro": 5209,
      "▁helps": 5210,
      "▁que": 5211,
      "armente": 5212,
      "▁domen": 5213,
      "▁Download": 5214,
      "▁Int": 5215,
      "▁maniera": 5216,
      "more": 5217,
      "▁word": 5218,
      "duced": 5219,
      "▁guar": 5220,
      "ountain": 5221,
      "▁contenuti": 5222,
      "▁advanta": 5223,
      "▁mond": 5224,
      "ux": 5225,
      "▁late": 5226,
      "▁Minister": 5227,
      "▁CO": 5228,
      "liamo": 5229,
      "fornia": 5230,
      "pose": 5231,
      "▁sense": 5232,
      "▁locale": 5233,
      "▁difficol": 5234,
      "▁Nuo": 5235,
      "ier": 5236,
      "LI": 5237,
      "▁Canada": 5238,
      "▁compar": 5239,
      "▁trip": 5240,
      "▁Ob": 5241,
      "▁lives": 5242,
      "▁rispond": 5243,
      "▁stessi": 5244,
      "▁SP": 5245,
      "▁Ess": 5246,
      "▁condition": 5247,
      "▁worked": 5248,
      "▁piatta": 5249,
      "▁Video": 5250,
      "▁written": 5251,
      "▁Sport": 5252,
      "▁providing": 5253,
      "▁summer": 5254,
      "▁hit": 5255,
      "▁daily": 5256,
      "▁Jack": 5257,
      "▁Company": 5258,
      "▁Aless": 5259,
      "▁PRO": 5260,
      "▁Care": 5261,
      "▁court": 5262,
      "▁attack": 5263,
      "▁Mor": 5264,
      "ises": 5265,
      "cil": 5266,
      "▁trust": 5267,
      "▁Link": 5268,
      "▁incredi": 5269,
      "▁produce": 5270,
      "otte": 5271,
      "▁AR": 5272,
      "▁divers": 5273,
      "pot": 5274,
      "▁Click": 5275,
      "▁breve": 5276,
      "iac": 5277,
      "inary": 5278,
      "▁correct": 5279,
      "▁vicino": 5280,
      "hol": 5281,
      "inata": 5282,
      "cep": 5283,
      "vio": 5284,
      "▁coper": 5285,
      "▁testa": 5286,
      "▁appropri": 5287,
      "▁gift": 5288,
      "▁Sund": 5289,
      "oms": 5290,
      "▁valuta": 5291,
      "▁prendere": 5292,
      "▁trasfer": 5293,
      "▁gara": 5294,
      "▁Tro": 5295,
      "▁Hol": 5296,
      "▁acqua": 5297,
      "rutt": 5298,
      "▁Hel": 5299,
      "ml": 5300,
      "▁Department": 5301,
      "▁dettagli": 5302,
      "ucle": 5303,
      "ival": 5304,
      "inizio": 5305,
      "▁solutions": 5306,
      "▁gives": 5307,
      "anger": 5308,
      "met": 5309,
      "▁adj": 5310,
      "anche": 5311,
      "▁Dur": 5312,
      "▁charg": 5313,
      "▁Management": 5314,
      "▁notte": 5315,
      "unge": 5316,
      "▁avoid": 5317,
      "alog": 5318,
      "ken": 5319,
      "▁saw": 5320,
      "▁trend": 5321,
      "▁Street": 5322,
      "▁)": 5323,
      "echan": 5324,
      "▁instead": 5325,
      "▁Sing": 5326,
      "▁abbia": 5327,
      "▁Sen": 5328,
      "▁walk": 5329,
      "▁popol": 5330,
      "▁Conf": 5331,
      "▁effect": 5332,
      "Le": 5333,
      "▁itself": 5334,
      "▁verific": 5335,
      "▁diagn": 5336,
      "▁morning": 5337,
      "▁stanno": 5338,
      "▁avrebbe": 5339,
      "▁Other": 5340,
      "mos": 5341,
      "▁Pan": 5342,
      "▁Let": 5343,
      "▁consult": 5344,
      "▁testo": 5345,
      "▁soldi": 5346,
      "▁cross": 5347,
      "aries": 5348,
      "▁drug": 5349,
      "ecutive": 5350,
      "▁scrit": 5351,
      "▁colore": 5352,
      "▁promot": 5353,
      "▁ingredi": 5354,
      "equ": 5355,
      "ronic": 5356,
      "▁possiamo": 5357,
      "▁attenzione": 5358,
      "word": 5359,
      "▁arm": 5360,
      "ipend": 5361,
      "▁favore": 5362,
      "▁Bank": 5363,
      "mit": 5364,
      "inn": 5365,
      "▁telev": 5366,
      "▁sequ": 5367,
      "enge": 5368,
      "▁degree": 5369,
      "▁comporta": 5370,
      "▁goes": 5371,
      "illi": 5372,
      "apan": 5373,
      "enior": 5374,
      "▁strength": 5375,
      "▁Ju": 5376,
      "▁Glo": 5377,
      "astica": 5378,
      "thern": 5379,
      "▁estate": 5380,
      "sta": 5381,
      "▁£": 5382,
      "▁London": 5383,
      "asy": 5384,
      "enz": 5385,
      "▁pian": 5386,
      "▁section": 5387,
      "▁player": 5388,
      "▁discipl": 5389,
      "▁Io": 5390,
      "▁fondo": 5391,
      "itable": 5392,
      "haps": 5393,
      "▁sym": 5394,
      "▁path": 5395,
      "▁fresh": 5396,
      "▁definitely": 5397,
      "▁massimo": 5398,
      "▁Sto": 5399,
      "tempt": 5400,
      "▁Media": 5401,
      "▁Stati": 5402,
      "▁appe": 5403,
      "▁war": 5404,
      "▁precedente": 5405,
      "ya": 5406,
      "wing": 5407,
      "▁fan": 5408,
      "▁spend": 5409,
      "inder": 5410,
      "▁song": 5411,
      "▁Law": 5412,
      "▁Review": 5413,
      "▁collection": 5414,
      "cies": 5415,
      "▁Community": 5416,
      "ENT": 5417,
      "▁pom": 5418,
      "▁Sar": 5419,
      "▁nota": 5420,
      "▁attention": 5421,
      "▁lost": 5422,
      "▁completely": 5423,
      "ESS": 5424,
      "▁Categ": 5425,
      "▁evol": 5426,
      "▁themselves": 5427,
      "tion": 5428,
      "fl": 5429,
      "▁Marco": 5430,
      "▁Paolo": 5431,
      "▁naturale": 5432,
      "▁ident": 5433,
      "▁difficoltà": 5434,
      "▁huge": 5435,
      "iono": 5436,
      "▁involved": 5437,
      "▁certi": 5438,
      "oph": 5439,
      "▁volume": 5440,
      "▁Dic": 5441,
      "▁frat": 5442,
      "▁fair": 5443,
      "▁Aff": 5444,
      "▁parla": 5445,
      "ardia": 5446,
      "▁relazione": 5447,
      "▁concept": 5448,
      "▁situation": 5449,
      "▁Festival": 5450,
      "▁advert": 5451,
      "▁Miss": 5452,
      "change": 5453,
      "▁COM": 5454,
      "▁Pass": 5455,
      "elcome": 5456,
      "▁ambient": 5457,
      "▁Cult": 5458,
      "▁hands": 5459,
      "▁wal": 5460,
      "vamente": 5461,
      "▁crisi": 5462,
      "pite": 5463,
      "▁radio": 5464,
      "idea": 5465,
      "▁avanti": 5466,
      "▁costi": 5467,
      "▁offerte": 5468,
      "▁cambi": 5469,
      "▁gamb": 5470,
      "itario": 5471,
      "onst": 5472,
      "▁epis": 5473,
      "▁deciso": 5474,
      "aca": 5475,
      "▁investment": 5476,
      "verse": 5477,
      "▁Prima": 5478,
      "part": 5479,
      "▁commercial": 5480,
      "oming": 5481,
      "▁SC": 5482,
      "▁pagamento": 5483,
      "▁conserv": 5484,
      "▁sch": 5485,
      "dom": 5486,
      "▁Lear": 5487,
      "▁progetti": 5488,
      "▁essential": 5489,
      "▁browser": 5490,
      "▁velo": 5491,
      "▁sicuramente": 5492,
      "enty": 5493,
      "▁parlare": 5494,
      "▁favorite": 5495,
      "▁Product": 5496,
      "anzo": 5497,
      "▁morte": 5498,
      "▁domenica": 5499,
      "uted": 5500,
      "▁esist": 5501,
      "aves": 5502,
      "▁subs": 5503,
      "tire": 5504,
      "▁Tutti": 5505,
      "▁uses": 5506,
      "▁RE": 5507,
      "▁rifi": 5508,
      "▁White": 5509,
      "iché": 5510,
      "▁calc": 5511,
      "▁California": 5512,
      "▁cru": 5513,
      "▁Covid": 5514,
      "viamente": 5515,
      "▁Star": 5516,
      "ums": 5517,
      "porate": 5518,
      "▁elettr": 5519,
      "▁risc": 5520,
      "▁studenti": 5521,
      "tagram": 5522,
      "'.": 5523,
      "▁directly": 5524,
      "▁sole": 5525,
      "▁giovane": 5526,
      "▁Life": 5527,
      "▁slot": 5528,
      "ecting": 5529,
      "▁release": 5530,
      "▁See": 5531,
      "evole": 5532,
      "▁former": 5533,
      "▁capital": 5534,
      "esperienza": 5535,
      ".”": 5536,
      "▁album": 5537,
      "▁fru": 5538,
      "▁partita": 5539,
      "bblica": 5540,
      "▁settimane": 5541,
      "▁sched": 5542,
      "▁encoura": 5543,
      "dì": 5544,
      "▁regionale": 5545,
      "▁bur": 5546,
      "ude": 5547,
      "▁rent": 5548,
      "▁garant": 5549,
      "▁Exp": 5550,
      "des": 5551,
      "▁scoper": 5552,
      "▁Santa": 5553,
      "▁expected": 5554,
      "▁necessità": 5555,
      "▁Plan": 5556,
      "▁sosp": 5557,
      "IF": 5558,
      "▁drink": 5559,
      "▁esegu": 5560,
      "▁arriva": 5561,
      "▁riconosc": 5562,
      "▁Class": 5563,
      "izes": 5564,
      "▁richi": 5565,
      "▁Food": 5566,
      "▁basic": 5567,
      "▁weekend": 5568,
      "▁organization": 5569,
      "▁piccoli": 5570,
      "▁fatti": 5571,
      "▁shall": 5572,
      "▁TO": 5573,
      "band": 5574,
      "urato": 5575,
      "eca": 5576,
      "▁Make": 5577,
      "▁ferm": 5578,
      "acci": 5579,
      "ront": 5580,
      "▁sn": 5581,
      "istry": 5582,
      "▁pap": 5583,
      "▁Torino": 5584,
      "▁applications": 5585,
      "▁unico": 5586,
      "illing": 5587,
      "▁cerca": 5588,
      "▁Paul": 5589,
      "▁evitare": 5590,
      "▁dat": 5591,
      "▁tess": 5592,
      "▁Econom": 5593,
      "▁Ora": 5594,
      "CE": 5595,
      "izzate": 5596,
      "▁avven": 5597,
      "▁Secondo": 5598,
      "▁ES": 5599,
      "▁attempt": 5600,
      "onav": 5601,
      "▁interesting": 5602,
      "▁thinking": 5603,
      "essore": 5604,
      "▁planning": 5605,
      "▁proprietà": 5606,
      "▁response": 5607,
      "▁load": 5608,
      "ulta": 5609,
      "?\"": 5610,
      "amore": 5611,
      "▁fat": 5612,
      "field": 5613,
      "▁Oggi": 5614,
      "▁provincia": 5615,
      "colare": 5616,
      "▁send": 5617,
      "▁motivo": 5618,
      "▁Govern": 5619,
      "▁regul": 5620,
      "ettare": 5621,
      "▁Miche": 5622,
      "articolo": 5623,
      "▁Sur": 5624,
      "▁potrà": 5625,
      "▁loan": 5626,
      "▁wish": 5627,
      "▁Presidente": 5628,
      "▁colori": 5629,
      "igno": 5630,
      "▁Mel": 5631,
      "▁mut": 5632,
      "▁occasione": 5633,
      "▁commento": 5634,
      "▁carry": 5635,
      "enerdì": 5636,
      "iling": 5637,
      "fa": 5638,
      "▁towards": 5639,
      "pol": 5640,
      "▁benefici": 5641,
      "▁businesses": 5642,
      "▁desider": 5643,
      "▁Disc": 5644,
      "▁manifesta": 5645,
      "▁privacy": 5646,
      "▁conoscere": 5647,
      "▁Satur": 5648,
      "▁pari": 5649,
      "▁comunità": 5650,
      "yond": 5651,
      "berg": 5652,
      "▁Social": 5653,
      "istics": 5654,
      "▁automatic": 5655,
      "▁Last": 5656,
      "▁pubblicato": 5657,
      "▁View": 5658,
      "▁completamente": 5659,
      "▁risorse": 5660,
      "sequ": 5661,
      "▁language": 5662,
      "▁bella": 5663,
      "▁door": 5664,
      "ancy": 5665,
      "▁verrà": 5666,
      "▁contratto": 5667,
      "▁parents": 5668,
      "▁Open": 5669,
      "BC": 5670,
      "▁sun": 5671,
      "▁campaign": 5672,
      "inting": 5673,
      "edizione": 5674,
      "▁Lat": 5675,
      "▁considered": 5676,
      "cca": 5677,
      "▁Cong": 5678,
      "▁Europa": 5679,
      "▁exactly": 5680,
      "▁Check": 5681,
      "▁easi": 5682,
      "▁portare": 5683,
      "OVID": 5684,
      "▁Rich": 5685,
      "▁miei": 5686,
      "▁suffici": 5687,
      "itano": 5688,
      "▁Giovanni": 5689,
      "arc": 5690,
      "▁Maggio": 5691,
      "▁termini": 5692,
      "▁Ret": 5693,
      "zy": 5694,
      "giare": 5695,
      "▁pandem": 5696,
      "▁myself": 5697,
      "df": 5698,
      "▁East": 5699,
      "▁edizione": 5700,
      "fin": 5701,
      "▁cinque": 5702,
      "▁Mach": 5703,
      "lese": 5704,
      "▁Christmas": 5705,
      "▁vivere": 5706,
      "ych": 5707,
      "▁impegn": 5708,
      "ength": 5709,
      "▁wrong": 5710,
      "rane": 5711,
      "▁Cop": 5712,
      "usione": 5713,
      "▁principale": 5714,
      "prise": 5715,
      "gni": 5716,
      "▁gets": 5717,
      "▁storico": 5718,
      "▁Once": 5719,
      "▁Whe": 5720,
      "▁rights": 5721,
      "door": 5722,
      "fortable": 5723,
      "▁Nor": 5724,
      "▁categoria": 5725,
      "App": 5726,
      "rut": 5727,
      "▁divis": 5728,
      "▁starting": 5729,
      "tiene": 5730,
      "▁conclud": 5731,
      "▁groups": 5732,
      "▁trasc": 5733,
      "▁pren": 5734,
      "udio": 5735,
      "▁Cris": 5736,
      "▁cry": 5737,
      "▁varie": 5738,
      "oga": 5739,
      "ressive": 5740,
      "▁blood": 5741,
      "▁SU": 5742,
      "▁Australia": 5743,
      "▁aw": 5744,
      "ontro": 5745,
      "hington": 5746,
      "▁cant": 5747,
      "▁reach": 5748,
      "▁ovvero": 5749,
      "ffee": 5750,
      "▁culture": 5751,
      "▁complex": 5752,
      "▁Centro": 5753,
      "inate": 5754,
      "▁achieve": 5755,
      "▁Elect": 5756,
      "▁Doc": 5757,
      "▁OF": 5758,
      "▁Leggi": 5759,
      "▁Spe": 5760,
      "▁guerra": 5761,
      "▁sleep": 5762,
      "occo": 5763,
      "itary": 5764,
      "▁states": 5765,
      "▁spazi": 5766,
      "▁pressure": 5767,
      "▁rates": 5768,
      "▁Paese": 5769,
      "▁Oper": 5770,
      "▁tecnica": 5771,
      "▁Organ": 5772,
      "▁trib": 5773,
      "▁condiv": 5774,
      "▁Find": 5775,
      "▁Ty": 5776,
      "▁techni": 5777,
      "▁assum": 5778,
      "▁developed": 5779,
      "▁feder": 5780,
      "▁extrem": 5781,
      "▁visi": 5782,
      "▁led": 5783,
      "▁limited": 5784,
      "▁decided": 5785,
      "▁dubb": 5786,
      "▁selezion": 5787,
      "▁Cir": 5788,
      "▁elettron": 5789,
      "▁trade": 5790,
      "▁Back": 5791,
      "▁scriv": 5792,
      "▁vera": 5793,
      "▁dry": 5794,
      "iali": 5795,
      "ctions": 5796,
      "▁effects": 5797,
      "▁Ra": 5798,
      "oren": 5799,
      "rendere": 5800,
      "▁Fre": 5801,
      "▁Since": 5802,
      "pes": 5803,
      "▁impi": 5804,
      "▁Dani": 5805,
      "▁nas": 5806,
      "▁lont": 5807,
      "LO": 5808,
      "▁hear": 5809,
      "▁ascol": 5810,
      "attere": 5811,
      "▁contribu": 5812,
      "Euro": 5813,
      "▁sv": 5814,
      "alle": 5815,
      "ascia": 5816,
      "alli": 5817,
      "▁Form": 5818,
      "tail": 5819,
      "▁pages": 5820,
      "order": 5821,
      "▁aware": 5822,
      "▁physical": 5823,
      "▁Big": 5824,
      "▁passo": 5825,
      "▁picture": 5826,
      "▁interested": 5827,
      "▁economic": 5828,
      "▁cab": 5829,
      "itaria": 5830,
      "▁Net": 5831,
      "▁esigenze": 5832,
      "▁fully": 5833,
      "▁affron": 5834,
      "onna": 5835,
      "▁traspor": 5836,
      "▁Use": 5837,
      "▁Quest": 5838,
      "▁sera": 5839,
      "▁scopo": 5840,
      "▁supporto": 5841,
      "▁teach": 5842,
      "▁Rock": 5843,
      "▁giving": 5844,
      "▁Fun": 5845,
      "▁employees": 5846,
      "▁pull": 5847,
      "▁ristor": 5848,
      "▁Trump": 5849,
      "▁mid": 5850,
      "▁Div": 5851,
      "▁Novembre": 5852,
      "”.": 5853,
      "▁verif": 5854,
      "▁ieri": 5855,
      "bur": 5856,
      "utilizzo": 5857,
      "▁significa": 5858,
      "▁Pay": 5859,
      "▁server": 5860,
      "▁agric": 5861,
      "▁construction": 5862,
      "cire": 5863,
      "ception": 5864,
      "amed": 5865,
      "▁successful": 5866,
      "▁utile": 5867,
      "▁enh": 5868,
      "▁reported": 5869,
      "▁tante": 5870,
      "▁sorp": 5871,
      "unti": 5872,
      "▁cad": 5873,
      "▁Next": 5874,
      "▁resto": 5875,
      "▁gratis": 5876,
      "▁inclus": 5877,
      "▁figure": 5878,
      "▁prevede": 5879,
      "ellow": 5880,
      "▁elementi": 5881,
      "▁diss": 5882,
      "▁Share": 5883,
      "▁au": 5884,
      "itation": 5885,
      "▁strategy": 5886,
      "▁subst": 5887,
      "eccan": 5888,
      "▁Pubblicato": 5889,
      "▁voce": 5890,
      "▁plus": 5891,
      "▁giochi": 5892,
      "▁floor": 5893,
      "▁articoli": 5894,
      "paren": 5895,
      "▁broad": 5896,
      "▁anzi": 5897,
      "▁activity": 5898,
      "▁Project": 5899,
      "▁Sunday": 5900,
      "▁questione": 5901,
      "enni": 5902,
      "gar": 5903,
      "▁Bit": 5904,
      "▁tempor": 5905,
      "like": 5906,
      "▁opere": 5907,
      "▁vehicle": 5908,
      "▁raggiungere": 5909,
      "▁scol": 5910,
      "icoli": 5911,
      "▁CH": 5912,
      "▁transfer": 5913,
      "▁veloce": 5914,
      "▁garanti": 5915,
      "▁Polit": 5916,
      "▁fondamentale": 5917,
      "▁modific": 5918,
      "ey": 5919,
      "azine": 5920,
      "▁Water": 5921,
      "▁zone": 5922,
      "BA": 5923,
      "house": 5924,
      "oche": 5925,
      "ressed": 5926,
      "ancing": 5927,
      "▁vit": 5928,
      "▁register": 5929,
      "lor": 5930,
      "gono": 5931,
      "▁tick": 5932,
      "▁cias": 5933,
      "▁Japan": 5934,
      "▁Ven": 5935,
      "▁difference": 5936,
      "▁Indust": 5937,
      "▁piece": 5938,
      "▁copy": 5939,
      "▁Cod": 5940,
      "▁rob": 5941,
      "▁presenta": 5942,
      "▁Like": 5943,
      "onavirus": 5944,
      "ologica": 5945,
      "▁hour": 5946,
      "▁Monday": 5947,
      "▁Office": 5948,
      "▁superiore": 5949,
      "▁Comments": 5950,
      "▁funzione": 5951,
      "▁prestito": 5952,
      "▁pil": 5953,
      "▁hum": 5954,
      "▁Microsoft": 5955,
      "used": 5956,
      "▁Custom": 5957,
      "▁Sant": 5958,
      "▁Gia": 5959,
      "▁Temp": 5960,
      "▁creating": 5961,
      "▁decide": 5962,
      "oglio": 5963,
      "OD": 5964,
      "▁reduce": 5965,
      "glia": 5966,
      "▁uso": 5967,
      "▁hous": 5968,
      "▁NE": 5969,
      "▁intellig": 5970,
      "antly": 5971,
      "▁nature": 5972,
      "▁places": 5973,
      "enta": 5974,
      "▁ecco": 5975,
      "▁understanding": 5976,
      "usti": 5977,
      "▁COVID": 5978,
      "icon": 5979,
      "urt": 5980,
      "ket": 5981,
      "▁Music": 5982,
      "▁manufactur": 5983,
      "▁fight": 5984,
      "▁sostitu": 5985,
      "eggio": 5986,
      "ampions": 5987,
      "▁Scar": 5988,
      "▁advis": 5989,
      "ambiente": 5990,
      "▁dead": 5991,
      "▁growing": 5992,
      "▁pubblica": 5993,
      "wide": 5994,
      "▁Proc": 5995,
      "tact": 5996,
      "▁Alex": 5997,
      "rata": 5998,
      "olio": 5999,
      "▁jobs": 6000,
      "▁kitchen": 6001,
      "▁Today": 6002,
      "▁config": 6003,
      "Sh": 6004,
      "▁Email": 6005,
      "▁Search": 6006,
      "▁sabato": 6007,
      "giorno": 6008,
      "▁assoluta": 6009,
      "▁Mark": 6010,
      "▁shop": 6011,
      "▁stage": 6012,
      "non": 6013,
      "▁proprie": 6014,
      "▁slow": 6015,
      "▁Brit": 6016,
      "blish": 6017,
      "▁Af": 6018,
      "▁famiglie": 6019,
      "▁chied": 6020,
      "▁Sum": 6021,
      "erai": 6022,
      "▁dot": 6023,
      "▁normal": 6024,
      "▁repair": 6025,
      "▁Report": 6026,
      "▁schools": 6027,
      "▁figli": 6028,
      "▁provved": 6029,
      "▁absol": 6030,
      "▁Pub": 6031,
      "ARE": 6032,
      "viene": 6033,
      "▁exerc": 6034,
      "▁incor": 6035,
      "estern": 6036,
      "▁charge": 6037,
      "▁rapid": 6038,
      "ORE": 6039,
      "▁sometimes": 6040,
      "▁frame": 6041,
      "▁cong": 6042,
      "▁rivel": 6043,
      "▁vuoi": 6044,
      "▁accompagn": 6045,
      "▁benefit": 6046,
      "mio": 6047,
      "▁devices": 6048,
      "▁Tex": 6049,
      "▁compren": 6050,
      "▁Sand": 6051,
      "xi": 6052,
      "▁davanti": 6053,
      "▁spot": 6054,
      "▁manager": 6055,
      "urare": 6056,
      "▁jud": 6057,
      "▁inqu": 6058,
      "▁americ": 6059,
      "▁visita": 6060,
      "▁©": 6061,
      "ATO": 6062,
      "▁sudd": 6063,
      "▁Casa": 6064,
      "onomia": 6065,
      "rench": 6066,
      "▁nem": 6067,
      "amples": 6068,
      "ience": 6069,
      "▁happen": 6070,
      "▁carri": 6071,
      "▁healthy": 6072,
      "ults": 6073,
      "inale": 6074,
      "amic": 6075,
      "▁eleg": 6076,
      "▁Tit": 6077,
      "oker": 6078,
      "▁Saturday": 6079,
      "▁god": 6080,
      "▁political": 6081,
      "▁Look": 6082,
      "▁pratica": 6083,
      "▁storage": 6084,
      "▁colp": 6085,
      "▁Instagram": 6086,
      "▁overall": 6087,
      "▁Word": 6088,
      "▁ufficiale": 6089,
      "▁perfetta": 6090,
      "icles": 6091,
      "▁né": 6092,
      "▁published": 6093,
      "▁According": 6094,
      "rast": 6095,
      "▁Reply": 6096,
      "▁traditional": 6097,
      "▁‘": 6098,
      "▁giusto": 6099,
      "▁accessi": 6100,
      "▁mult": 6101,
      "▁Africa": 6102,
      "▁soff": 6103,
      "▁legisl": 6104,
      "▁General": 6105,
      "▁shi": 6106,
      "erebbe": 6107,
      "▁paid": 6108,
      "▁conduct": 6109,
      "▁lif": 6110,
      "▁Washington": 6111,
      "▁purpose": 6112,
      "▁posted": 6113,
      "▁AD": 6114,
      "vento": 6115,
      "▁Qual": 6116,
      "inati": 6117,
      "▁bath": 6118,
      "enziali": 6119,
      "▁CB": 6120,
      "aper": 6121,
      "astro": 6122,
      "▁sort": 6123,
      "▁orient": 6124,
      "▁migliorare": 6125,
      "▁message": 6126,
      "▁sottoline": 6127,
      "▁cioè": 6128,
      "MS": 6129,
      "▁wasn": 6130,
      "▁rot": 6131,
      "▁began": 6132,
      "▁images": 6133,
      "amm": 6134,
      "▁sindaco": 6135,
      "▁iPhone": 6136,
      "▁James": 6137,
      "▁finanziamento": 6138,
      "▁dir": 6139,
      "arily": 6140,
      "▁Engine": 6141,
      "ques": 6142,
      "▁Year": 6143,
      "▁giornal": 6144,
      "▁Tags": 6145,
      "▁Time": 6146,
      "▁divert": 6147,
      "crizione": 6148,
      "▁bambino": 6149,
      "oliday": 6150,
      "tics": 6151,
      "▁Cin": 6152,
      "▁veget": 6153,
      "▁moving": 6154,
      "▁veloc": 6155,
      "▁unit": 6156,
      "▁felt": 6157,
      "asione": 6158,
      "▁Mat": 6159,
      "ologna": 6160,
      "▁materiale": 6161,
      "▁stup": 6162,
      "▁Michael": 6163,
      "nze": 6164,
      "▁aim": 6165,
      "▁behav": 6166,
      "▁Education": 6167,
      "▁perdere": 6168,
      "▁opportunities": 6169,
      "▁neigh": 6170,
      "over": 6171,
      "▁Andrea": 6172,
      "set": 6173,
      "▁interventi": 6174,
      "ualità": 6175,
      "▁vs": 6176,
      "▁Jun": 6177,
      "▁offered": 6178,
      "arlier": 6179,
      "II": 6180,
      "uttosto": 6181,
      "pertura": 6182,
      "▁European": 6183,
      "▁concentr": 6184,
      "▁classe": 6185,
      "▁metri": 6186,
      "▁People": 6187,
      "▁libr": 6188,
      "stitute": 6189,
      "▁became": 6190,
      "%.": 6191,
      "▁bagno": 6192,
      "▁conferm": 6193,
      "▁virus": 6194,
      "▁attiv": 6195,
      "▁relax": 6196,
      "▁bisogna": 6197,
      "▁facendo": 6198,
      "▁basso": 6199,
      "sian": 6200,
      "▁sports": 6201,
      "ZA": 6202,
      "▁Tutto": 6203,
      "▁evalu": 6204,
      "▁Civ": 6205,
      "acia": 6206,
      "▁novità": 6207,
      "▁warm": 6208,
      "▁vill": 6209,
      "▁temperature": 6210,
      "▁saying": 6211,
      "▁famili": 6212,
      "▁dark": 6213,
      "umps": 6214,
      "▁diventare": 6215,
      "▁Special": 6216,
      "▁audio": 6217,
      "▁Matt": 6218,
      "▁associated": 6219,
      "▁entram": 6220,
      "▁usare": 6221,
      "▁optim": 6222,
      "▁Natale": 6223,
      "orb": 6224,
      "▁stuff": 6225,
      "Ad": 6226,
      "▁susp": 6227,
      "▁rispar": 6228,
      "▁Road": 6229,
      "auty": 6230,
      "▁tue": 6231,
      "▁wait": 6232,
      "▁calcio": 6233,
      "▁medico": 6234,
      "▁eye": 6235,
      "▁organiz": 6236,
      "▁immo": 6237,
      "▁demand": 6238,
      "▁fal": 6239,
      "voli": 6240,
      "▁wed": 6241,
      "▁Under": 6242,
      "▁tried": 6243,
      "▁nessuno": 6244,
      "▁tecnico": 6245,
      "▁Ros": 6246,
      "▁soggetti": 6247,
      "▁heat": 6248,
      "kers": 6249,
      "▁Perché": 6250,
      "▁Wal": 6251,
      "▁Hall": 6252,
      "▁contatto": 6253,
      "▁comfort": 6254,
      "itar": 6255,
      "▁potrebbero": 6256,
      "▁soluzioni": 6257,
      "▁diment": 6258,
      "▁Tom": 6259,
      "▁conoscenza": 6260,
      "▁Isra": 6261,
      "▁incontro": 6262,
      "▁gave": 6263,
      "▁regarding": 6264,
      "▁sold": 6265,
      "▁bri": 6266,
      "▁alternative": 6267,
      "▁strumento": 6268,
      "▁payment": 6269,
      "▁smartphone": 6270,
      "▁Sun": 6271,
      "▁economico": 6272,
      "▁reve": 6273,
      "▁Russia": 6274,
      "▁posti": 6275,
      "erget": 6276,
      "NO": 6277,
      "▁piccola": 6278,
      "IE": 6279,
      "▁flu": 6280,
      "▁consente": 6281,
      "▁dedicato": 6282,
      "▁dream": 6283,
      "▁effort": 6284,
      "alazzo": 6285,
      "etica": 6286,
      "▁furn": 6287,
      "abor": 6288,
      "▁sav": 6289,
      "▁photos": 6290,
      "▁Inst": 6291,
      "▁straight": 6292,
      "▁CD": 6293,
      "▁Team": 6294,
      "ittee": 6295,
      "▁lack": 6296,
      "▁invi": 6297,
      "poste": 6298,
      "▁Mot": 6299,
      "▁movie": 6300,
      "▁ID": 6301,
      "ript": 6302,
      "▁feeling": 6303,
      "▁played": 6304,
      "TS": 6305,
      "▁Alla": 6306,
      "▁goals": 6307,
      "▁Men": 6308,
      "▁Alessand": 6309,
      "▁Vene": 6310,
      "▁insegn": 6311,
      "versi": 6312,
      "▁Alber": 6313,
      "▁tips": 6314,
      "ppure": 6315,
      "▁psic": 6316,
      "▁Pet": 6317,
      "▁sand": 6318,
      "▁instit": 6319,
      "essor": 6320,
      "Am": 6321,
      "liance": 6322,
      "ardino": 6323,
      "useppe": 6324,
      "▁Ca": 6325,
      "▁pattern": 6326,
      "▁respond": 6327,
      "▁Although": 6328,
      "▁Island": 6329,
      "▁Board": 6330,
      "▁Buy": 6331,
      "▁arrivare": 6332,
      "▁Test": 6333,
      "Pro": 6334,
      "▁procedure": 6335,
      "▁straordin": 6336,
      "▁maybe": 6337,
      "▁piedi": 6338,
      "▁Yes": 6339,
      "▁PS": 6340,
      "▁Liber": 6341,
      "▁Stef": 6342,
      "▁master": 6343,
      "▁Sign": 6344,
      "▁wonderful": 6345,
      "urali": 6346,
      "▁lots": 6347,
      "coli": 6348,
      "▁compos": 6349,
      "▁Fond": 6350,
      "▁Equ": 6351,
      "lim": 6352,
      "atively": 6353,
      "▁nonostante": 6354,
      "▁curi": 6355,
      "▁ideal": 6356,
      "▁Sam": 6357,
      "▁increased": 6358,
      "▁Sel": 6359,
      "itali": 6360,
      "▁distanza": 6361,
      "▁appunta": 6362,
      "▁extremely": 6363,
      "▁sistemi": 6364,
      "▁qualcuno": 6365,
      "▁Bay": 6366,
      "ambito": 6367,
      "andosi": 6368,
      "▁Press": 6369,
      "unte": 6370,
      "illo": 6371,
      "▁Chies": 6372,
      "▁Blue": 6373,
      "erved": 6374,
      "tiere": 6375,
      "▁mother": 6376,
      "iles": 6377,
      "Qu": 6378,
      "▁luoghi": 6379,
      "ergy": 6380,
      "▁libri": 6381,
      "▁Court": 6382,
      "▁advice": 6383,
      "▁interp": 6384,
      "▁reale": 6385,
      "ses": 6386,
      "▁pensare": 6387,
      "acher": 6388,
      "▁preoccup": 6389,
      "▁modelli": 6390,
      "eck": 6391,
      "▁Angel": 6392,
      "▁baby": 6393,
      "▁Det": 6394,
      "▁stri": 6395,
      "▁Tutta": 6396,
      "▁offering": 6397,
      "▁Antonio": 6398,
      "▁acquistare": 6399,
      "▁emb": 6400,
      "well": 6401,
      "▁protezione": 6402,
      "ossa": 6403,
      "▁previsto": 6404,
      "▁tecnologia": 6405,
      "▁riport": 6406,
      "▁shopping": 6407,
      "CC": 6408,
      "utente": 6409,
      "▁primary": 6410,
      "▁confronti": 6411,
      "▁abit": 6412,
      "eds": 6413,
      "eler": 6414,
      "▁complic": 6415,
      "▁decl": 6416,
      "▁consiglio": 6417,
      "▁approfond": 6418,
      "▁Acqu": 6419,
      "▁increasing": 6420,
      "▁particularly": 6421,
      "▁rendere": 6422,
      "▁Ps": 6423,
      "▁ped": 6424,
      "ministration": 6425,
      "▁methods": 6426,
      "▁Public": 6427,
      "▁Gall": 6428,
      "▁responsabilità": 6429,
      "▁afford": 6430,
      "▁fisc": 6431,
      "▁aree": 6432,
      "▁messo": 6433,
      "▁pool": 6434,
      "rd": 6435,
      "▁Jes": 6436,
      "▁Nazionale": 6437,
      "aker": 6438,
      "▁trovato": 6439,
      "▁damage": 6440,
      "▁utilizzato": 6441,
      "▁Master": 6442,
      "▁Sul": 6443,
      "▁mail": 6444,
      "▁Flor": 6445,
      "▁lavoratori": 6446,
      "eff": 6447,
      "term": 6448,
      "▁Num": 6449,
      "▁teams": 6450,
      "▁glass": 6451,
      "uni": 6452,
      "▁eat": 6453,
      "▁terzo": 6454,
      "▁piuttosto": 6455,
      "▁passi": 6456,
      "▁Lead": 6457,
      "▁League": 6458,
      "▁Soft": 6459,
      "▁satis": 6460,
      "ubblica": 6461,
      "▁easier": 6462,
      "▁wid": 6463,
      "▁seguire": 6464,
      "▁partecipazione": 6465,
      "rome": 6466,
      "▁diretta": 6467,
      "pto": 6468,
      "▁digitale": 6469,
      "fiche": 6470,
      "▁coloro": 6471,
      "▁chem": 6472,
      "▁speciale": 6473,
      "▁spia": 6474,
      "▁delivery": 6475,
      "▁materiali": 6476,
      "▁active": 6477,
      "▁surface": 6478,
      "▁Marketing": 6479,
      "▁title": 6480,
      "agra": 6481,
      "▁opera": 6482,
      "▁repl": 6483,
      "ables": 6484,
      "▁niente": 6485,
      "ionale": 6486,
      "▁Sud": 6487,
      "▁academ": 6488,
      "▁Uniti": 6489,
      "▁heard": 6490,
      "▁double": 6491,
      "▁Oh": 6492,
      "force": 6493,
      "▁views": 6494,
      "▁vostra": 6495,
      "▁realizzazione": 6496,
      "ittura": 6497,
      "▁proto": 6498,
      "▁steel": 6499,
      "▁genitori": 6500,
      "nire": 6501,
      "esp": 6502,
      "▁disease": 6503,
      "▁Phil": 6504,
      "▁beginning": 6505,
      "▁DE": 6506,
      "▁professionale": 6507,
      "▁shown": 6508,
      "▁Pia": 6509,
      "▁materia": 6510,
      "▁scuole": 6511,
      "▁mili": 6512,
      "lip": 6513,
      "▁contra": 6514,
      "▁science": 6515,
      "uit": 6516,
      "▁vanno": 6517,
      "▁Hot": 6518,
      "▁lavorare": 6519,
      "▁metà": 6520,
      "▁Card": 6521,
      "issime": 6522,
      "▁independ": 6523,
      "▁fasc": 6524,
      "▁occur": 6525,
      "ran": 6526,
      "▁mining": 6527,
      "viso": 6528,
      "▁eyes": 6529,
      "▁diet": 6530,
      "▁pet": 6531,
      "apter": 6532,
      "▁entry": 6533,
      "terà": 6534,
      "ologies": 6535,
      "olato": 6536,
      "tte": 6537,
      "▁woman": 6538,
      "▁Cookie": 6539,
      "▁Log": 6540,
      "▁structure": 6541,
      "▁sezione": 6542,
      "▁giro": 6543,
      "▁cliente": 6544,
      "▁police": 6545,
      "▁riserv": 6546,
      "▁vict": 6547,
      "isp": 6548,
      "▁birth": 6549,
      "hest": 6550,
      "▁diventa": 6551,
      "▁nucle": 6552,
      "▁HD": 6553,
      "▁vede": 6554,
      "shop": 6555,
      "▁numbers": 6556,
      "▁transport": 6557,
      "bar": 6558,
      "▁recensioni": 6559,
      "ectively": 6560,
      "▁liter": 6561,
      "▁sicuro": 6562,
      "▁released": 6563,
      "aled": 6564,
      "inst": 6565,
      "izzazioni": 6566,
      "▁technical": 6567,
      "▁Network": 6568,
      "▁mechan": 6569,
      "▁potere": 6570,
      "fast": 6571,
      "▁resol": 6572,
      "troppo": 6573,
      "▁bul": 6574,
      "▁rappresenta": 6575,
      "obiettivo": 6576,
      "En": 6577,
      "ille": 6578,
      "IB": 6579,
      "▁Cosa": 6580,
      "▁segnal": 6581,
      "ulo": 6582,
      "▁Cla": 6583,
      "▁IP": 6584,
      "▁allen": 6585,
      "▁Fore": 6586,
      "▁Texas": 6587,
      "▁replace": 6588,
      "▁differenza": 6589,
      "▁rende": 6590,
      "▁Page": 6591,
      "▁adegu": 6592,
      "ursday": 6593,
      "▁object": 6594,
      "▁relative": 6595,
      "▁nation": 6596,
      "▁Price": 6597,
      "▁gesti": 6598,
      "occa": 6599,
      "▁cards": 6600,
      "▁Start": 6601,
      "▁studies": 6602,
      "ued": 6603,
      "▁central": 6604,
      "▁mm": 6605,
      "▁income": 6606,
      "AND": 6607,
      "▁terre": 6608,
      "▁Tour": 6609,
      "▁announced": 6610,
      "▁loved": 6611,
      "▁confir": 6612,
      "▁Giuseppe": 6613,
      "▁truly": 6614,
      "▁conosci": 6615,
      "uesday": 6616,
      "▁muse": 6617,
      "▁useful": 6618,
      "▁Long": 6619,
      "rati": 6620,
      "▁item": 6621,
      "arne": 6622,
      "tegra": 6623,
      "▁regist": 6624,
      "pet": 6625,
      "ograph": 6626,
      "covery": 6627,
      "▁tali": 6628,
      "opera": 6629,
      "▁verde": 6630,
      "▁Information": 6631,
      "▁NO": 6632,
      "▁window": 6633,
      "mark": 6634,
      "▁Show": 6635,
      "yal": 6636,
      "▁basis": 6637,
      "▁rank": 6638,
      "▁soltanto": 6639,
      "yc": 6640,
      "▁dovuto": 6641,
      "istici": 6642,
      "glio": 6643,
      "▁Ur": 6644,
      "▁contemporane": 6645,
      "▁quantità": 6646,
      "▁amore": 6647,
      "▁Week": 6648,
      "▁corris": 6649,
      "▁comfortable": 6650,
      "▁domande": 6651,
      "ettato": 6652,
      "▁und": 6653,
      "▁core": 6654,
      "SS": 6655,
      "▁appreci": 6656,
      "▁energet": 6657,
      "ded": 6658,
      "▁compared": 6659,
      "ja": 6660,
      "▁files": 6661,
      "▁religi": 6662,
      "orial": 6663,
      "▁hop": 6664,
      "▁mini": 6665,
      "venire": 6666,
      "▁cup": 6667,
      "▁figlio": 6668,
      "▁steps": 6669,
      "han": 6670,
      "venue": 6671,
      "uel": 6672,
      "vant": 6673,
      "stra": 6674,
      "▁motor": 6675,
      "▁ragione": 6676,
      "▁stone": 6677,
      "▁spread": 6678,
      "▁comuni": 6679,
      "▁Child": 6680,
      "▁reports": 6681,
      "▁portato": 6682,
      "acing": 6683,
      "▁Each": 6684,
      "▁catt": 6685,
      "▁billion": 6686,
      "graphy": 6687,
      "▁proposta": 6688,
      "▁spese": 6689,
      "annel": 6690,
      "▁domest": 6691,
      "▁offic": 6692,
      "lying": 6693,
      "▁paesi": 6694,
      "▁rules": 6695,
      "▁stick": 6696,
      "▁quota": 6697,
      "▁Love": 6698,
      "undred": 6699,
      "▁cinema": 6700,
      "ourney": 6701,
      "▁Found": 6702,
      "▁Full": 6703,
      "ustria": 6704,
      "▁attrib": 6705,
      "ras": 6706,
      "▁quarter": 6707,
      "▁garantire": 6708,
      "▁Wood": 6709,
      "▁stories": 6710,
      "andon": 6711,
      "formazione": 6712,
      "inger": 6713,
      "▁Pap": 6714,
      "▁perman": 6715,
      "▁greater": 6716,
      "▁CA": 6717,
      "▁pazienti": 6718,
      "▁pictures": 6719,
      "▁consap": 6720,
      "uncia": 6721,
      "osità": 6722,
      "VA": 6723,
      "oles": 6724,
      "icità": 6725,
      "win": 6726,
      "istan": 6727,
      "▁sé": 6728,
      "▁setting": 6729,
      "roc": 6730,
      "iny": 6731,
      "ordine": 6732,
      "▁tecniche": 6733,
      "itz": 6734,
      "▁Abbiamo": 6735,
      "iced": 6736,
      "▁impossi": 6737,
      "▁misure": 6738,
      "UM": 6739,
      "▁Salv": 6740,
      "uovere": 6741,
      "▁spirit": 6742,
      "▁capelli": 6743,
      "▁alber": 6744,
      "▁lunga": 6745,
      "tegno": 6746,
      "▁generally": 6747,
      "posto": 6748,
      "▁Emp": 6749,
      "▁List": 6750,
      "▁glob": 6751,
      "▁durata": 6752,
      "fication": 6753,
      "eces": 6754,
      "▁idee": 6755,
      "▁electric": 6756,
      "▁mir": 6757,
      "▁brought": 6758,
      "▁thous": 6759,
      "▁ria": 6760,
      "▁età": 6761,
      "▁although": 6762,
      "uola": 6763,
      "▁Imm": 6764,
      "LC": 6765,
      "▁ries": 6766,
      "▁families": 6767,
      "▁appropriate": 6768,
      "▁reasons": 6769,
      "▁rag": 6770,
      "enom": 6771,
      "▁Enter": 6772,
      "▁Bologna": 6773,
      "▁Merc": 6774,
      "lla": 6775,
      "▁wants": 6776,
      "▁interesse": 6777,
      "encies": 6778,
      "ny": 6779,
      "icola": 6780,
      "Univers": 6781,
      "▁maggiori": 6782,
      "▁merito": 6783,
      "▁mel": 6784,
      "▁err": 6785,
      "▁piazza": 6786,
      "meno": 6787,
      "▁livelli": 6788,
      "nesday": 6789,
      "inten": 6790,
      "gest": 6791,
      "▁azioni": 6792,
      "usso": 6793,
      "▁cooper": 6794,
      "▁meaning": 6795,
      "▁mort": 6796,
      "▁Sky": 6797,
      "▁campagna": 6798,
      "▁Questi": 6799,
      "▁lit": 6800,
      "▁codice": 6801,
      "!\"": 6802,
      "▁clim": 6803,
      "▁maxim": 6804,
      "emble": 6805,
      "▁gall": 6806,
      "armi": 6807,
      "▁padre": 6808,
      "dule": 6809,
      "ughter": 6810,
      "▁centrale": 6811,
      "▁franc": 6812,
      "▁Dicembre": 6813,
      "idential": 6814,
      "ander": 6815,
      "▁sov": 6816,
      "astico": 6817,
      "▁statement": 6818,
      "▁Contact": 6819,
      "▁award": 6820,
      "alto": 6821,
      "▁ON": 6822,
      "▁attend": 6823,
      "▁je": 6824,
      "▁Conn": 6825,
      "▁measure": 6826,
      "▁Tar": 6827,
      "▁scena": 6828,
      "▁fiss": 6829,
      "▁largest": 6830,
      "▁Crus": 6831,
      "anca": 6832,
      "▁trasform": 6833,
      "▁Medic": 6834,
      "▁experienced": 6835,
      "▁→": 6836,
      "▁Vir": 6837,
      "▁som": 6838,
      "▁utili": 6839,
      "resti": 6840,
      "▁driver": 6841,
      "ego": 6842,
      "▁Hi": 6843,
      "ference": 6844,
      "▁arr": 6845,
      "▁Thom": 6846,
      "▁Pop": 6847,
      "ached": 6848,
      "▁sustain": 6849,
      "▁Quindi": 6850,
      "”,": 6851,
      "▁Thursday": 6852,
      "▁spent": 6853,
      "osizione": 6854,
      "▁Scop": 6855,
      "▁Chiesa": 6856,
      "▁rilev": 6857,
      "free": 6858,
      "log": 6859,
      "nership": 6860,
      "▁Rob": 6861,
      "▁helpful": 6862,
      "▁AT": 6863,
      "▁dil": 6864,
      "esimo": 6865,
      "▁valid": 6866,
      "ounds": 6867,
      "▁accur": 6868,
      "▁chiar": 6869,
      "▁immediately": 6870,
      "▁dovrà": 6871,
      "OP": 6872,
      "▁semplicemente": 6873,
      "▁earlier": 6874,
      "▁Bell": 6875,
      "▁aren": 6876,
      "▁metal": 6877,
      "▁DA": 6878,
      "gen": 6879,
      "▁Tuesday": 6880,
      "▁advantage": 6881,
      "▁dolore": 6882,
      "▁protection": 6883,
      "▁selection": 6884,
      "▁realizzare": 6885,
      "▁Light": 6886,
      "Re": 6887,
      "▁Digital": 6888,
      "▁nearly": 6889,
      "▁Bri": 6890,
      "▁fornire": 6891,
      "rough": 6892,
      "ulare": 6893,
      "erva": 6894,
      "▁guarante": 6895,
      "▁join": 6896,
      "▁schi": 6897,
      "atever": 6898,
      "forme": 6899,
      "▁existing": 6900,
      "▁riv": 6901,
      "▁pace": 6902,
      "▁therap": 6903,
      "▁Ide": 6904,
      "▁Global": 6905,
      "▁Development": 6906,
      "▁Call": 6907,
      "▁costante": 6908,
      "▁finally": 6909,
      "utely": 6910,
      "▁Jul": 6911,
      "??": 6912,
      "▁femmin": 6913,
      "▁preso": 6914,
      "▁factors": 6915,
      "Non": 6916,
      "▁realizzato": 6917,
      "▁Have": 6918,
      "▁dram": 6919,
      "▁evidence": 6920,
      "ocal": 6921,
      "▁ahead": 6922,
      "▁sociali": 6923,
      "Con": 6924,
      "astanza": 6925,
      "▁parola": 6926,
      "▁AND": 6927,
      "▁turned": 6928,
      "▁animali": 6929,
      "▁mondiale": 6930,
      "▁meccan": 6931,
      "itati": 6932,
      "▁notizie": 6933,
      "▁Manager": 6934,
      "▁Oltre": 6935,
      "idence": 6936,
      "▁requires": 6937,
      "▁select": 6938,
      "opp": 6939,
      "▁patient": 6940,
      "▁pieno": 6941,
      "▁critical": 6942,
      "den": 6943,
      "iano": 6944,
      "▁Wall": 6945,
      "▁conqu": 6946,
      "▁bac": 6947,
      "▁threat": 6948,
      "▁creative": 6949,
      "▁Author": 6950,
      "▁Science": 6951,
      "▁Upd": 6952,
      "look": 6953,
      "▁fatta": 6954,
      "▁legno": 6955,
      "cript": 6956,
      "▁Council": 6957,
      "▁Control": 6958,
      "▁Mas": 6959,
      "▁raccolta": 6960,
      "▁emot": 6961,
      "▁ripar": 6962,
      "▁belie": 6963,
      "▁regole": 6964,
      "▁official": 6965,
      "▁Association": 6966,
      "▁contenuto": 6967,
      "▁Siamo": 6968,
      "▁Nav": 6969,
      "▁Natur": 6970,
      "▁compagn": 6971,
      "▁beyond": 6972,
      "uttore": 6973,
      "▁notice": 6974,
      "▁Dom": 6975,
      "This": 6976,
      "▁condivid": 6977,
      "▁ritorno": 6978,
      "▁Tuttavia": 6979,
      "▁dura": 6980,
      "▁changed": 6981,
      "▁Firenze": 6982,
      "▁dimensioni": 6983,
      "▁Jesus": 6984,
      "rote": 6985,
      "▁direttore": 6986,
      "▁pac": 6987,
      "tainment": 6988,
      "▁thanks": 6989,
      "late": 6990,
      "▁commenti": 6991,
      "▁rib": 6992,
      "▁lines": 6993,
      "▁blue": 6994,
      "▁Adv": 6995,
      "▁plug": 6996,
      "▁menu": 6997,
      "▁Lou": 6998,
      "letter": 6999,
      "▁Ogni": 7000,
      "OG": 7001,
      "arda": 7002,
      "▁Because": 7003,
      "▁alone": 7004,
      "▁Wednesday": 7005,
      "razioni": 7006,
      "intenance": 7007,
      "▁looked": 7008,
      "ICA": 7009,
      "▁poll": 7010,
      "lain": 7011,
      "▁Redazione": 7012,
      "ilio": 7013,
      "▁chiaro": 7014,
      "men": 7015,
      "vera": 7016,
      "aga": 7017,
      "icata": 7018,
      "Fi": 7019,
      "▁mente": 7020,
      "erma": 7021,
      "▁iron": 7022,
      "missions": 7023,
      "▁potranno": 7024,
      "▁Beach": 7025,
      "amica": 7026,
      "▁responsabile": 7027,
      "▁hospital": 7028,
      "▁impar": 7029,
      "▁background": 7030,
      "ulated": 7031,
      "estro": 7032,
      "ega": 7033,
      "▁syn": 7034,
      "▁Mary": 7035,
      "▁movimento": 7036,
      "▁anticip": 7037,
      "▁Jos": 7038,
      "▁economy": 7039,
      "▁culturale": 7040,
      "▁demonst": 7041,
      "▁diam": 7042,
      "razia": 7043,
      "▁protect": 7044,
      "▁force": 7045,
      "▁TH": 7046,
      "▁status": 7047,
      "▁Technology": 7048,
      "▁wire": 7049,
      "mila": 7050,
      "▁Premi": 7051,
      "▁voglia": 7052,
      "▁models": 7053,
      "▁abbastanza": 7054,
      "evento": 7055,
      "▁traffic": 7056,
      "▁feet": 7057,
      "▁MA": 7058,
      "▁annual": 7059,
      "▁fidu": 7060,
      "▁Christian": 7061,
      "isci": 7062,
      "▁Live": 7063,
      "ettono": 7064,
      "▁length": 7065,
      "ered": 7066,
      "▁amministr": 7067,
      "▁Lim": 7068,
      "▁madre": 7069,
      "▁guad": 7070,
      "▁aspett": 7071,
      "▁sosteni": 7072,
      "▁Wi": 7073,
      "▁Another": 7074,
      "▁Cli": 7075,
      "▁suffer": 7076,
      "ob": 7077,
      "▁LE": 7078,
      "▁libertà": 7079,
      "▁graph": 7080,
      "aglia": 7081,
      "edale": 7082,
      "▁posso": 7083,
      "itude": 7084,
      "▁Director": 7085,
      "▁stip": 7086,
      "▁ultime": 7087,
      "comp": 7088,
      "ermo": 7089,
      "▁tranqu": 7090,
      "▁knew": 7091,
      "▁histor": 7092,
      "▁Plus": 7093,
      "▁PDF": 7094,
      "▁responsible": 7095,
      "▁Luca": 7096,
      "▁sugger": 7097,
      "▁strugg": 7098,
      "▁Due": 7099,
      "▁Trib": 7100,
      "▁conness": 7101,
      "▁Compl": 7102,
      "▁Family": 7103,
      "iao": 7104,
      "▁lettura": 7105,
      "▁fashion": 7106,
      "▁actual": 7107,
      "▁comunale": 7108,
      "ulate": 7109,
      "▁indipend": 7110,
      "▁distin": 7111,
      "▁Two": 7112,
      "alisi": 7113,
      "▁prove": 7114,
      "orrow": 7115,
      "▁ripro": 7116,
      "▁Writ": 7117,
      "▁Mobile": 7118,
      "amin": 7119,
      "▁individu": 7120,
      "▁nero": 7121,
      "rating": 7122,
      "▁affrontare": 7123,
      "▁sostegno": 7124,
      "▁homes": 7125,
      "reh": 7126,
      "▁dentro": 7127,
      "▁rischi": 7128,
      "▁piattaforma": 7129,
      "attare": 7130,
      "ingu": 7131,
      "▁Franc": 7132,
      "▁draw": 7133,
      "estre": 7134,
      "▁Tri": 7135,
      "▁org": 7136,
      "merce": 7137,
      "abase": 7138,
      "▁Hy": 7139,
      "▁TR": 7140,
      "▁tv": 7141,
      "▁sugli": 7142,
      "▁trasm": 7143,
      "▁Repubblica": 7144,
      "▁seguenti": 7145,
      "▁obiet": 7146,
      "▁adesso": 7147,
      "▁dietro": 7148,
      "▁capo": 7149,
      "htt": 7150,
      "▁challenge": 7151,
      "▁viaggi": 7152,
      "▁surround": 7153,
      "abol": 7154,
      "utta": 7155,
      "vedì": 7156,
      "▁gente": 7157,
      "▁cloud": 7158,
      "▁FOR": 7159,
      "▁piacere": 7160,
      "▁regione": 7161,
      "▁Nord": 7162,
      "▁cells": 7163,
      "▁finish": 7164,
      "▁allowed": 7165,
      "▁middle": 7166,
      "▁Stat": 7167,
      "▁redd": 7168,
      "▁arrest": 7169,
      "▁cercare": 7170,
      "DI": 7171,
      "▁presto": 7172,
      "▁cancer": 7173,
      "▁particolarmente": 7174,
      "▁fans": 7175,
      "▁illustr": 7176,
      "bt": 7177,
      "▁pubblici": 7178,
      "▁manage": 7179,
      "enco": 7180,
      "▁cold": 7181,
      "▁cancell": 7182,
      "▁minor": 7183,
      "▁bianco": 7184,
      "eva": 7185,
      "▁IM": 7186,
      "▁Tim": 7187,
      "▁zero": 7188,
      "▁atto": 7189,
      "▁miles": 7190,
      "ste": 7191,
      "▁assicur": 7192,
      "▁protagonista": 7193,
      "▁libero": 7194,
      "dio": 7195,
      "▁intorno": 7196,
      "▁wear": 7197,
      "»,": 7198,
      "▁capacity": 7199,
      "▁utilizza": 7200,
      "▁strutture": 7201,
      "▁Pri": 7202,
      "▁auth": 7203,
      "ruppo": 7204,
      "yer": 7205,
      "▁Fa": 7206,
      "▁weather": 7207,
      "▁venerdì": 7208,
      "▁magari": 7209,
      "▁update": 7210,
      "attia": 7211,
      "▁topic": 7212,
      "▁pratic": 7213,
      "▁pagine": 7214,
      "▁Pas": 7215,
      "▁nom": 7216,
      "▁powerful": 7217,
      "▁aperto": 7218,
      "▁superi": 7219,
      "unk": 7220,
      "▁Head": 7221,
      "▁afferm": 7222,
      "itate": 7223,
      "▁chair": 7224,
      "text": 7225,
      "▁buying": 7226,
      "▁Poi": 7227,
      "reso": 7228,
      "▁scoprire": 7229,
      "▁Bur": 7230,
      "▁dallo": 7231,
      "▁infrast": 7232,
      "import": 7233,
      "▁During": 7234,
      "▁Ant": 7235,
      "fferta": 7236,
      "▁nonché": 7237,
      "fying": 7238,
      "ental": 7239,
      "▁farlo": 7240,
      "▁appo": 7241,
      "▁shoot": 7242,
      "▁Color": 7243,
      "▁aspetti": 7244,
      "▁Bio": 7245,
      "▁Indian": 7246,
      "▁Ferr": 7247,
      "▁perhaps": 7248,
      "▁isc": 7249,
      "\":": 7250,
      "tivamente": 7251,
      "▁assign": 7252,
      "raw": 7253,
      "▁propriet": 7254,
      "▁lingua": 7255,
      "▁valori": 7256,
      "▁Ga": 7257,
      "▁courses": 7258,
      "▁hundred": 7259,
      "▁distur": 7260,
      "Tube": 7261,
      "actions": 7262,
      "TC": 7263,
      "▁presentazione": 7264,
      "▁serious": 7265,
      "▁Film": 7266,
      "▁Cred": 7267,
      "orrere": 7268,
      "▁spiega": 7269,
      "▁talking": 7270,
      "▁Ult": 7271,
      "▁mette": 7272,
      "▁expos": 7273,
      "arre": 7274,
      "▁solito": 7275,
      "▁cheap": 7276,
      "uting": 7277,
      "posizione": 7278,
      "▁Wil": 7279,
      "▁memor": 7280,
      "▁element": 7281,
      "▁British": 7282,
      "▁forme": 7283,
      "▁lingu": 7284,
      "▁secure": 7285,
      "▁ucc": 7286,
      "▁helping": 7287,
      "▁casin": 7288,
      "▁preno": 7289,
      "▁race": 7290,
      "▁poor": 7291,
      "▁Ottobre": 7292,
      "▁proveni": 7293,
      "friend": 7294,
      "▁himself": 7295,
      "alogo": 7296,
      "anging": 7297,
      "ettori": 7298,
      "▁Florida": 7299,
      "▁param": 7300,
      "itti": 7301,
      "▁lista": 7302,
      "BS": 7303,
      "▁basta": 7304,
      "▁QU": 7305,
      "▁connection": 7306,
      "▁dedicata": 7307,
      "%,": 7308,
      "accesso": 7309,
      "▁argu": 7310,
      "ANO": 7311,
      "▁Italy": 7312,
      "▁tenere": 7313,
      "▁wedding": 7314,
      "itors": 7315,
      "▁Smart": 7316,
      "Ag": 7317,
      "acquisto": 7318,
      "▁president": 7319,
      "▁atti": 7320,
      "▁Radio": 7321,
      "▁devi": 7322,
      "▁Bon": 7323,
      "▁lato": 7324,
      "▁CR": 7325,
      "▁ideale": 7326,
      "▁helped": 7327,
      "▁miliardi": 7328,
      "▁therefore": 7329,
      "▁calend": 7330,
      "▁instruct": 7331,
      "▁fum": 7332,
      "pons": 7333,
      "▁videos": 7334,
      "▁giocare": 7335,
      "▁specie": 7336,
      "mitted": 7337,
      "**": 7338,
      "mar": 7339,
      "▁sinistra": 7340,
      "uty": 7341,
      "▁Build": 7342,
      "▁finding": 7343,
      "lexi": 7344,
      "▁bottom": 7345,
      "apia": 7346,
      "▁Travel": 7347,
      "coming": 7348,
      "▁Access": 7349,
      "olate": 7350,
      "Europa": 7351,
      "▁passione": 7352,
      "zzare": 7353,
      "▁van": 7354,
      "▁facilmente": 7355,
      "▁processing": 7356,
      "▁appare": 7357,
      "▁domin": 7358,
      "▁funds": 7359,
      "▁politiche": 7360,
      "▁coffee": 7361,
      "ogliere": 7362,
      "▁sola": 7363,
      "▁elements": 7364,
      "venzione": 7365,
      "▁azienda": 7366,
      "SE": 7367,
      "▁danno": 7368,
      "▁testing": 7369,
      "▁completed": 7370,
      "▁mission": 7371,
      "▁originale": 7372,
      "▁memoria": 7373,
      "▁cul": 7374,
      "].": 7375,
      "▁inglese": 7376,
      "▁perdita": 7377,
      "cat": 7378,
      "CI": 7379,
      "▁motiv": 7380,
      "▁Villa": 7381,
      "▁Academ": 7382,
      "▁efficace": 7383,
      "▁established": 7384,
      "erie": 7385,
      "▁;": 7386,
      "▁owner": 7387,
      "▁necessaria": 7388,
      "▁determine": 7389,
      "▁tum": 7390,
      "icing": 7391,
      "▁tagli": 7392,
      "▁scelto": 7393,
      "▁Follow": 7394,
      "oggi": 7395,
      "adi": 7396,
      "▁passare": 7397,
      "▁probabilmente": 7398,
      "▁driving": 7399,
      "▁numerous": 7400,
      "▁ovviamente": 7401,
      "▁adjust": 7402,
      "▁relia": 7403,
      "▁Forum": 7404,
      "mes": 7405,
      "ocato": 7406,
      "▁Take": 7407,
      "▁Profession": 7408,
      "cent": 7409,
      "▁Brand": 7410,
      "▁Pur": 7411,
      "▁progress": 7412,
      "rico": 7413,
      "▁ordin": 7414,
      "nam": 7415,
      "volta": 7416,
      "assion": 7417,
      "▁shared": 7418,
      "▁Stand": 7419,
      "▁paura": 7420,
      "▁pic": 7421,
      "itment": 7422,
      "ompl": 7423,
      "▁Qui": 7424,
      "etri": 7425,
      "▁reflect": 7426,
      "▁wife": 7427,
      "▁communication": 7428,
      "▁French": 7429,
      "icians": 7430,
      "▁gri": 7431,
      "▁frag": 7432,
      "▁bedroom": 7433,
      "▁Fac": 7434,
      "▁richieste": 7435,
      "lev": 7436,
      "▁ricerc": 7437,
      "▁speriment": 7438,
      "▁miner": 7439,
      "▁liquid": 7440,
      "▁Serie": 7441,
      "▁Note": 7442,
      "▁sharing": 7443,
      "▁Dia": 7444,
      "▁Articolo": 7445,
      "▁Cho": 7446,
      "▁ospiti": 7447,
      "gl": 7448,
      "▁secolo": 7449,
      "icks": 7450,
      "▁Prot": 7451,
      "amma": 7452,
      "▁chiave": 7453,
      "▁confronto": 7454,
      "▁interpret": 7455,
      "▁desid": 7456,
      "▁decisione": 7457,
      "▁ted": 7458,
      "▁massima": 7459,
      "▁testimoni": 7460,
      "▁Hand": 7461,
      "▁valutazione": 7462,
      "▁hor": 7463,
      "▁necessari": 7464,
      "▁remain": 7465,
      "ko": 7466,
      "▁carico": 7467,
      "enses": 7468,
      "tri": 7469,
      "kn": 7470,
      "▁hus": 7471,
      "▁completa": 7472,
      "▁civile": 7473,
      "▁laws": 7474,
      "▁osserv": 7475,
      "▁Venezia": 7476,
      "▁OR": 7477,
      "▁gol": 7478,
      "▁workers": 7479,
      "▁larger": 7480,
      "▁ster": 7481,
      "AB": 7482,
      "▁spettacolo": 7483,
      "▁economica": 7484,
      "▁links": 7485,
      "▁Bill": 7486,
      "▁quei": 7487,
      "▁director": 7488,
      "▁Bitcoin": 7489,
      "▁soli": 7490,
      "▁espl": 7491,
      "▁Così": 7492,
      "▁posts": 7493,
      "▁exec": 7494,
      "▁scamb": 7495,
      "▁thank": 7496,
      "▁scher": 7497,
      "eness": 7498,
      "▁suppli": 7499,
      "ergia": 7500,
      "td": 7501,
      "▁malattia": 7502,
      "▁riti": 7503,
      "▁completo": 7504,
      "▁minister": 7505,
      "arono": 7506,
      "▁riun": 7507,
      "▁vision": 7508,
      "MO": 7509,
      "▁messaggio": 7510,
      "▁recente": 7511,
      "▁cron": 7512,
      "usura": 7513,
      "▁espr": 7514,
      "▁classes": 7515,
      "=\"": 7516,
      "▁opening": 7517,
      "▁impieg": 7518,
      "▁scale": 7519,
      "▁Lake": 7520,
      "▁Security": 7521,
      "Università": 7522,
      "▁wrote": 7523,
      "fera": 7524,
      "antic": 7525,
      "▁Institute": 7526,
      "▁highest": 7527,
      "▁Game": 7528,
      "active": 7529,
      "▁websites": 7530,
      "▁Vill": 7531,
      "▁Mov": 7532,
      "▁dirig": 7533,
      "FF": 7534,
      "▁giocatori": 7535,
      "▁rub": 7536,
      "itazioni": 7537,
      "bus": 7538,
      "▁Cass": 7539,
      "▁territori": 7540,
      "▁YouTube": 7541,
      "▁Cup": 7542,
      "▁acquist": 7543,
      "▁prestazioni": 7544,
      "▁veramente": 7545,
      "▁advance": 7546,
      "▁efforts": 7547,
      "▁federal": 7548,
      "etic": 7549,
      "▁secret": 7550,
      "▁Fur": 7551,
      "atoria": 7552,
      "▁raccont": 7553,
      "Is": 7554,
      "▁costruzione": 7555,
      "▁Noti": 7556,
      "▁Who": 7557,
      "▁Women": 7558,
      "iev": 7559,
      "▁mentioned": 7560,
      "▁diverso": 7561,
      "▁ulteriori": 7562,
      "▁composto": 7563,
      "▁velocità": 7564,
      "▁assolutamente": 7565,
      "▁desk": 7566,
      "▁organis": 7567,
      "▁gia": 7568,
      "▁coach": 7569,
      "onc": 7570,
      "▁vittoria": 7571,
      "▁sources": 7572,
      "▁Ext": 7573,
      "▁oggetto": 7574,
      "▁Bal": 7575,
      "▁operations": 7576,
      "▁journey": 7577,
      "▁peace": 7578,
      "aso": 7579,
      "▁Bene": 7580,
      "▁tuttavia": 7581,
      "▁Church": 7582,
      "▁adop": 7583,
      "▁Pag": 7584,
      "bby": 7585,
      "▁shot": 7586,
      "▁consenso": 7587,
      "▁Settembre": 7588,
      "ples": 7589,
      "▁direzione": 7590,
      "avano": 7591,
      "▁Comment": 7592,
      "▁effettuare": 7593,
      "▁respect": 7594,
      "occhi": 7595,
      "cious": 7596,
      "entially": 7597,
      "onde": 7598,
      "▁EN": 7599,
      "▁ottim": 7600,
      "▁discount": 7601,
      "▁challenges": 7602,
      "▁negozi": 7603,
      "▁friendly": 7604,
      "▁deriv": 7605,
      "▁campionato": 7606,
      "▁rare": 7607,
      "▁fear": 7608,
      "▁funzioni": 7609,
      "▁memory": 7610,
      "▁esperti": 7611,
      "▁cambiare": 7612,
      "rab": 7613,
      "▁scene": 7614,
      "▁heavy": 7615,
      "▁noto": 7616,
      "▁af": 7617,
      "▁Chinese": 7618,
      "ERE": 7619,
      "▁Ball": 7620,
      "▁accesso": 7621,
      "▁handle": 7622,
      "▁Sav": 7623,
      "▁corsi": 7624,
      "▁avrà": 7625,
      "▁intervento": 7626,
      "▁diretto": 7627,
      "▁Aprile": 7628,
      "anned": 7629,
      "▁rooms": 7630,
      "▁energia": 7631,
      "ibile": 7632,
      "ternal": 7633,
      "▁momenti": 7634,
      "▁seven": 7635,
      "zzato": 7636,
      "▁advanced": 7637,
      "▁Id": 7638,
      "▁macchina": 7639,
      "▁Pack": 7640,
      "rono": 7641,
      "▁pomer": 7642,
      "▁Central": 7643,
      "▁Fig": 7644,
      "▁father": 7645,
      "ician": 7646,
      "list": 7647,
      "▁Medical": 7648,
      "▁Cav": 7649,
      "▁danni": 7650,
      "▁Cy": 7651,
      "▁interview": 7652,
      "pir": 7653,
      "ITA": 7654,
      "▁leadership": 7655,
      "▁Mater": 7656,
      "▁moved": 7657,
      "▁harm": 7658,
      "emi": 7659,
      "▁couldn": 7660,
      "▁Marc": 7661,
      "▁invent": 7662,
      "▁metodo": 7663,
      "▁owners": 7664,
      "▁Guide": 7665,
      "▁mattina": 7666,
      "▁sì": 7667,
      "▁reality": 7668,
      "▁seeing": 7669,
      "▁approv": 7670,
      "▁camere": 7671,
      "ALI": 7672,
      "▁drop": 7673,
      "issi": 7674,
      "No": 7675,
      "agg": 7676,
      "rew": 7677,
      "irsi": 7678,
      "▁relevant": 7679,
      "▁Marzo": 7680,
      "▁cercando": 7681,
      "▁analisi": 7682,
      "▁fenom": 7683,
      "▁Squ": 7684,
      "▁Vers": 7685,
      "▁Studio": 7686,
      "▁carbon": 7687,
      "▁plants": 7688,
      "esia": 7689,
      "▁Canc": 7690,
      "▁score": 7691,
      "ji": 7692,
      "itness": 7693,
      "▁garden": 7694,
      "▁Den": 7695,
      "▁leaders": 7696,
      "▁Sale": 7697,
      "▁negative": 7698,
      "▁EU": 7699,
      "▁gruppi": 7700,
      "▁eventuali": 7701,
      "▁waste": 7702,
      "▁credo": 7703,
      "▁Milan": 7704,
      "▁Sports": 7705,
      "▁condizione": 7706,
      "▁Ing": 7707,
      "▁pow": 7708,
      "▁Key": 7709,
      "▁Mem": 7710,
      "▁football": 7711,
      "▁festa": 7712,
      "▁coppia": 7713,
      "▁aid": 7714,
      "osis": 7715,
      "▁Que": 7716,
      "▁Where": 7717,
      "idio": 7718,
      "▁obiettivi": 7719,
      "▁risulta": 7720,
      "▁visitors": 7721,
      "▁gel": 7722,
      "uma": 7723,
      "▁Republic": 7724,
      "ccess": 7725,
      "▁ordine": 7726,
      "▁Pos": 7727,
      "▁nar": 7728,
      "olina": 7729,
      "▁Ap": 7730,
      "▁absolutely": 7731,
      "fortun": 7732,
      "▁Chic": 7733,
      "▁Vo": 7734,
      "rei": 7735,
      "umn": 7736,
      "GI": 7737,
      "▁motivi": 7738,
      "▁depend": 7739,
      "▁imper": 7740,
      "▁dress": 7741,
      "▁mediante": 7742,
      "▁experts": 7743,
      "▁button": 7744,
      "▁Fo": 7745,
      "He": 7746,
      "nel": 7747,
      "occasione": 7748,
      "▁sector": 7749,
      "▁clot": 7750,
      "▁remove": 7751,
      "▁served": 7752,
      "▁decreto": 7753,
      "▁decre": 7754,
      "unica": 7755,
      "▁serata": 7756,
      "▁fred": 7757,
      "▁Watch": 7758,
      "▁voice": 7759,
      "ratti": 7760,
      "▁avevano": 7761,
      "▁presentato": 7762,
      "▁Uno": 7763,
      "▁Mario": 7764,
      "▁contesto": 7765,
      "▁propone": 7766,
      "fun": 7767,
      "ield": 7768,
      "estate": 7769,
      "▁piccole": 7770,
      "▁visione": 7771,
      "rac": 7772,
      "▁task": 7773,
      "▁Hill": 7774,
      "▁gone": 7775,
      "▁Commission": 7776,
      "▁category": 7777,
      "▁exclus": 7778,
      "▁personaggi": 7779,
      "▁Store": 7780,
      "▁lì": 7781,
      "▁Old": 7782,
      "ommod": 7783,
      "ST": 7784,
      "angue": 7785,
      "▁interno": 7786,
      "▁Geno": 7787,
      "▁caff": 7788,
      "▁values": 7789,
      "▁biggest": 7790,
      "▁PA": 7791,
      "▁Blu": 7792,
      "▁engineering": 7793,
      "▁developing": 7794,
      "ston": 7795,
      "▁corrispond": 7796,
      "▁lunedì": 7797,
      "uts": 7798,
      "perienze": 7799,
      "▁mart": 7800,
      "▁wat": 7801,
      "endio": 7802,
      "▁avete": 7803,
      "▁cars": 7804,
      "▁alter": 7805,
      "▁academic": 7806,
      "Per": 7807,
      "▁slight": 7808,
      "▁evento": 7809,
      "owl": 7810,
      "▁numerosi": 7811,
      "▁splend": 7812,
      "▁Sus": 7813,
      "▁organizations": 7814,
      "▁Times": 7815,
      "▁Dev": 7816,
      "▁gent": 7817,
      "eller": 7818,
      "▁tornare": 7819,
      "▁giusti": 7820,
      "▁operating": 7821,
      "▁Ep": 7822,
      "▁tablet": 7823,
      "▁luck": 7824,
      "▁followed": 7825,
      "rore": 7826,
      "▁Gal": 7827,
      "▁rosso": 7828,
      "bel": 7829,
      "▁typically": 7830,
      "▁Line": 7831,
      "▁Ges": 7832,
      "▁Bud": 7833,
      "▁Dan": 7834,
      "▁gratuito": 7835,
      "▁Luc": 7836,
      "▁effetto": 7837,
      "▁Monte": 7838,
      "▁europea": 7839,
      "▁bellezza": 7840,
      "iblio": 7841,
      "▁experiences": 7842,
      "▁haven": 7843,
      "▁thoughts": 7844,
      "▁utilizzati": 7845,
      "▁medio": 7846,
      "▁finished": 7847,
      "itiv": 7848,
      "▁conferma": 7849,
      "enna": 7850,
      "▁sud": 7851,
      "▁Max": 7852,
      "▁Its": 7853,
      "icious": 7854,
      "▁River": 7855,
      "▁Carlo": 7856,
      "uito": 7857,
      "▁mantenere": 7858,
      "icies": 7859,
      "▁Government": 7860,
      "▁Ok": 7861,
      "▁direction": 7862,
      "▁argom": 7863,
      "▁dispositivo": 7864,
      "▁church": 7865,
      "▁properties": 7866,
      "▁sweet": 7867,
      "▁Help": 7868,
      "▁Corte": 7869,
      "acco": 7870,
      "▁elabor": 7871,
      "▁Nell": 7872,
      "▁civil": 7873,
      "agno": 7874,
      "▁terri": 7875,
      "As": 7876,
      "▁lose": 7877,
      "▁Commissione": 7878,
      "▁vice": 7879,
      "▁Tech": 7880,
      "▁separate": 7881,
      "▁riconosci": 7882,
      "▁Sicilia": 7883,
      "▁department": 7884,
      "eline": 7885,
      "▁merav": 7886,
      "amsung": 7887,
      "▁Camera": 7888,
      "▁verità": 7889,
      "▁cere": 7890,
      "▁utilizzo": 7891,
      "▁frequent": 7892,
      "▁precedenti": 7893,
      "▁standards": 7894,
      "▁learned": 7895,
      "▁wild": 7896,
      "▁comma": 7897,
      "▁Spir": 7898,
      "▁vert": 7899,
      "▁tant": 7900,
      "asm": 7901,
      "vention": 7902,
      "▁har": 7903,
      "▁notizia": 7904,
      "▁esiste": 7905,
      "▁Los": 7906,
      "▁streaming": 7907,
      "oledì": 7908,
      "▁whose": 7909,
      "▁soggiorno": 7910,
      "▁italiane": 7911,
      "▁bol": 7912,
      "▁tradizione": 7913,
      "▁panor": 7914,
      "▁fill": 7915,
      "▁balance": 7916,
      "town": 7917,
      "SI": 7918,
      "▁rat": 7919,
      "▁operatori": 7920,
      "▁passaggio": 7921,
      "▁organizz": 7922,
      "ociazioni": 7923,
      "▁classifica": 7924,
      "▁Anti": 7925,
      "▁summ": 7926,
      "▁England": 7927,
      "▁concent": 7928,
      "▁society": 7929,
      "▁counter": 7930,
      "▁Sy": 7931,
      "▁forms": 7932,
      "▁Matte": 7933,
      "▁destra": 7934,
      "ault": 7935,
      "▁Giugno": 7936,
      "▁pieces": 7937,
      "▁Webs": 7938,
      "▁contains": 7939,
      "▁tom": 7940,
      "odio": 7941,
      "▁guys": 7942,
      "▁telefono": 7943,
      "▁Reviews": 7944,
      "▁contributo": 7945,
      "▁coverage": 7946,
      "▁nessun": 7947,
      "▁Lomb": 7948,
      "▁nasce": 7949,
      "▁Domen": 7950,
      "▁feste": 7951,
      "▁Land": 7952,
      "▁pron": 7953,
      "▁Dou": 7954,
      "venture": 7955,
      "▁loans": 7956,
      "rizione": 7957,
      "immagine": 7958,
      "▁Ott": 7959,
      "aug": 7960,
      "stituto": 7961,
      "▁surpris": 7962,
      "▁Atl": 7963,
      "▁provider": 7964,
      "▁facilities": 7965,
      "bio": 7966,
      "▁Teatro": 7967,
      "▁launch": 7968,
      "▁professionisti": 7969,
      "incontro": 7970,
      "▁partnership": 7971,
      "▁Journal": 7972,
      "▁street": 7973,
      "▁funzionalità": 7974,
      "▁ded": 7975,
      "▁poiché": 7976,
      "▁produced": 7977,
      "itura": 7978,
      "▁movement": 7979,
      "anner": 7980,
      "burg": 7981,
      "wa": 7982,
      "▁Bian": 7983,
      "▁Francia": 7984,
      "▁lettera": 7985,
      "▁quot": 7986,
      "▁profilo": 7987,
      "▁automo": 7988,
      "▁Util": 7989,
      "▁military": 7990,
      "▁restaurant": 7991,
      "ENTI": 7992,
      "▁net": 7993,
      "▁obvious": 7994,
      "▁George": 7995,
      "▁truth": 7996,
      "▁Scott": 7997,
      "▁assistance": 7998,
      "▁Series": 7999,
      "▁Foto": 8000,
      "▁Support": 8001,
      "▁Before": 8002,
      "atrimoni": 8003,
      "endi": 8004,
      "arent": 8005,
      "▁compreh": 8006,
      "▁Senza": 8007,
      "▁eth": 8008,
      "Com": 8009,
      "ructure": 8010,
      "ye": 8011,
      "▁happened": 8012,
      "▁senior": 8013,
      "▁domani": 8014,
      "▁avanz": 8015,
      "▁stare": 8016,
      "▁train": 8017,
      "▁husband": 8018,
      "▁cleaning": 8019,
      "▁numeri": 8020,
      "▁plenty": 8021,
      "▁calls": 8022,
      "▁park": 8023,
      "▁machines": 8024,
      "accordo": 8025,
      "▁iniz": 8026,
      "VI": 8027,
      "▁politico": 8028,
      "apt": 8029,
      "▁connected": 8030,
      "▁truck": 8031,
      "▁named": 8032,
      "▁ciascun": 8033,
      "▁Stefano": 8034,
      "ady": 8035,
      "▁talent": 8036,
      "▁render": 8037,
      "▁sco": 8038,
      "▁difesa": 8039,
      "▁Invest": 8040,
      "▁Aggi": 8041,
      "unale": 8042,
      "▁Ham": 8043,
      "▁population": 8044,
      "▁winter": 8045,
      "▁retail": 8046,
      "ggiare": 8047,
      "▁foreign": 8048,
      "▁prepared": 8049,
      "▁Van": 8050,
      "▁offrire": 8051,
      "▁opportunità": 8052,
      "▁waiting": 8053,
      "arvi": 8054,
      "▁roof": 8055,
      "▁connect": 8056,
      "▁masch": 8057,
      "GB": 8058,
      "cons": 8059,
      "cks": 8060,
      "iggio": 8061,
      "▁terror": 8062,
      "▁canz": 8063,
      "▁SE": 8064,
      "▁capt": 8065,
      "▁schedule": 8066,
      "▁bigli": 8067,
      "▁windows": 8068,
      "▁accord": 8069,
      "▁Gran": 8070,
      "▁flav": 8071,
      "▁revis": 8072,
      "ituzione": 8073,
      "▁switch": 8074,
      "▁attesa": 8075,
      "▁gestire": 8076,
      "icati": 8077,
      "▁Smith": 8078,
      "▁Ness": 8079,
      "▁fiducia": 8080,
      "▁station": 8081,
      "ssa": 8082,
      "▁gather": 8083,
      "▁holiday": 8084,
      "▁pair": 8085,
      "▁audience": 8086,
      "▁interessante": 8087,
      "▁exercise": 8088,
      "▁funziona": 8089,
      "▁listed": 8090,
      "▁spons": 8091,
      "▁segno": 8092,
      "▁rinnov": 8093,
      "▁vale": 8094,
      "▁rum": 8095,
      "▁guess": 8096,
      "▁compati": 8097,
      "▁keeping": 8098,
      "ails": 8099,
      "▁voc": 8100,
      "▁sfida": 8101,
      "▁singolo": 8102,
      "▁cif": 8103,
      "abini": 8104,
      "▁breat": 8105,
      "▁forum": 8106,
      "▁moda": 8107,
      "▁trovano": 8108,
      "edy": 8109,
      "▁Champions": 8110,
      "▁Oct": 8111,
      "▁markets": 8112,
      "icate": 8113,
      "▁oggetti": 8114,
      "▁Veg": 8115,
      "lands": 8116,
      "guardo": 8117,
      "▁perfetto": 8118,
      "▁Robert": 8119,
      "▁produt": 8120,
      "▁novel": 8121,
      "html": 8122,
      "▁Lazio": 8123,
      "▁moto": 8124,
      "▁kept": 8125,
      "rone": 8126,
      "licazione": 8127,
      "▁trover": 8128,
      "▁hom": 8129,
      "▁MP": 8130,
      "▁covered": 8131,
      "▁oppos": 8132,
      "▁mg": 8133,
      "ilibri": 8134,
      "ensa": 8135,
      "▁Du": 8136,
      "▁feedback": 8137,
      "hel": 8138,
      "▁mezzi": 8139,
      "▁dieci": 8140,
      "▁grade": 8141,
      "▁giardino": 8142,
      "▁older": 8143,
      "▁voluto": 8144,
      "▁accedere": 8145,
      "enga": 8146,
      "▁Grande": 8147,
      "Press": 8148,
      "▁precis": 8149,
      "▁ricevere": 8150,
      "▁atmos": 8151,
      "cezione": 8152,
      "▁entr": 8153,
      "how": 8154,
      "▁Applic": 8155,
      "▁specifico": 8156,
      "▁ridurre": 8157,
      "▁esperienze": 8158,
      "▁poche": 8159,
      "▁fees": 8160,
      "▁session": 8161,
      "▁fuoco": 8162,
      "unning": 8163,
      "▁riguardo": 8164,
      "▁forze": 8165,
      "▁Roberto": 8166,
      "▁Pers": 8167,
      "▁paint": 8168,
      "▁chain": 8169,
      "▁Gab": 8170,
      "▁Luglio": 8171,
      "▁Gennaio": 8172,
      "▁ambiente": 8173,
      "▁consapevole": 8174,
      "▁interpre": 8175,
      "▁popolazione": 8176,
      "▁iniziato": 8177,
      "▁Donna": 8178,
      "ecture": 8179,
      "▁welcome": 8180,
      "▁estim": 8181,
      "▁initial": 8182,
      "▁Ol": 8183,
      "▁format": 8184,
      "▁pensiero": 8185,
      "oke": 8186,
      "▁riman": 8187,
      "▁practices": 8188,
      "▁linee": 8189,
      "▁SS": 8190,
      "novazione": 8191,
      "▁scom": 8192,
      "irittura": 8193,
      "▁Whether": 8194,
      "▁professionals": 8195,
      "istory": 8196,
      "▁wouldn": 8197,
      "▁ritrov": 8198,
      "egni": 8199,
      "▁majority": 8200,
      "▁Orig": 8201,
      "retto": 8202,
      "▁banc": 8203,
      "▁tipi": 8204,
      "▁Learn": 8205,
      "▁brain": 8206,
      "▁stelle": 8207,
      "▁inizia": 8208,
      "▁Case": 8209,
      "▁gusto": 8210,
      "▁Def": 8211,
      "▁reti": 8212,
      "▁denaro": 8213,
      "▁tests": 8214,
      "ales": 8215,
      "▁presented": 8216,
      "hem": 8217,
      "▁teaching": 8218,
      "izion": 8219,
      "▁trasporto": 8220,
      "▁chiesto": 8221,
      "▁Software": 8222,
      "▁valor": 8223,
      "▁grave": 8224,
      "▁Machine": 8225,
      "Sc": 8226,
      "▁Asia": 8227,
      "▁articles": 8228,
      "▁riesce": 8229,
      "▁fee": 8230,
      "▁Shop": 8231,
      "▁Frank": 8232,
      "▁Keep": 8233,
      "▁expensive": 8234,
      "▁onto": 8235,
      "standing": 8236,
      "▁deleg": 8237,
      "▁bello": 8238,
      "▁torna": 8239,
      "lino": 8240,
      "▁pronto": 8241,
      "▁tecnologie": 8242,
      "▁ottimo": 8243,
      "▁ero": 8244,
      "▁Fu": 8245,
      "▁affin": 8246,
      "▁figura": 8247,
      "ares": 8248,
      "▁Stamp": 8249,
      "▁capit": 8250,
      "▁Peter": 8251,
      "▁documento": 8252,
      "▁aug": 8253,
      "▁successivo": 8254,
      "▁faith": 8255,
      "INE": 8256,
      "▁mister": 8257,
      "▁spring": 8258,
      "▁innovative": 8259,
      "orter": 8260,
      "▁properly": 8261,
      "▁strani": 8262,
      "▁proposte": 8263,
      "▁Brown": 8264,
      "▁attract": 8265,
      "▁vantaggi": 8266,
      "rim": 8267,
      "add": 8268,
      "▁indag": 8269,
      "▁selling": 8270,
      "thlet": 8271,
      "▁born": 8272,
      "▁Ta": 8273,
      "▁posta": 8274,
      "▁radi": 8275,
      "▁described": 8276,
      "▁gir": 8277,
      ",”": 8278,
      "▁exhib": 8279,
      "▁dispositivi": 8280,
      "▁dipendenti": 8281,
      "▁divid": 8282,
      "▁CEO": 8283,
      "You": 8284,
      "▁smaller": 8285,
      "▁commerciale": 8286,
      "▁Farm": 8287,
      "▁entrare": 8288,
      "orire": 8289,
      "rivo": 8290,
      "▁iniziative": 8291,
      "▁bought": 8292,
      "▁appart": 8293,
      "▁Games": 8294,
      "▁consegna": 8295,
      "▁vul": 8296,
      "▁upgra": 8297,
      "erop": 8298,
      "egue": 8299,
      "▁shape": 8300,
      "▁flexi": 8301,
      "▁Simp": 8302,
      "▁dichiarato": 8303,
      "▁Eff": 8304,
      "▁USB": 8305,
      "arità": 8306,
      "▁infine": 8307,
      "▁faccia": 8308,
      "▁capitale": 8309,
      "▁Casino": 8310,
      "inizi": 8311,
      "▁tub": 8312,
      "▁rifless": 8313,
      "▁lamp": 8314,
      "▁error": 8315,
      "▁whatever": 8316,
      "▁competition": 8317,
      "arle": 8318,
      "▁maintenance": 8319,
      "▁compi": 8320,
      "▁communities": 8321,
      "Or": 8322,
      "▁creati": 8323,
      "▁rapporti": 8324,
      "PC": 8325,
      "van": 8326,
      "▁operation": 8327,
      "▁Fund": 8328,
      "▁Their": 8329,
      "▁names": 8330,
      "▁database": 8331,
      "▁FA": 8332,
      "▁placed": 8333,
      "▁concrete": 8334,
      "▁strategies": 8335,
      "▁Palermo": 8336,
      "▁eight": 8337,
      "istrutt": 8338,
      "▁fabric": 8339,
      "▁Lord": 8340,
      "▁advertising": 8341,
      "▁avvic": 8342,
      "▁racconta": 8343,
      "kin": 8344,
      "▁formato": 8345,
      "EST": 8346,
      "▁leggi": 8347,
      "▁parties": 8348,
      ".....": 8349,
      "▁contest": 8350,
      "▁Solo": 8351,
      "▁tree": 8352,
      "▁scad": 8353,
      "▁admin": 8354,
      "▁happens": 8355,
      "▁Palazzo": 8356,
      "▁cibo": 8357,
      "▁hyd": 8358,
      "▁esclusivamente": 8359,
      "▁dobbiamo": 8360,
      "▁eccell": 8361,
      "elines": 8362,
      "ettiva": 8363,
      "gor": 8364,
      "▁minimo": 8365,
      "VE": 8366,
      "ira": 8367,
      "▁sala": 8368,
      "▁Rim": 8369,
      "▁afferma": 8370,
      "▁rout": 8371,
      "▁sit": 8372,
      "▁mila": 8373,
      "▁socc": 8374,
      "▁Win": 8375,
      "▁Semp": 8376,
      "rical": 8377,
      "▁agreement": 8378,
      "▁cres": 8379,
      "▁pleas": 8380,
      "▁identify": 8381,
      "▁Previous": 8382,
      "▁isol": 8383,
      "▁ferro": 8384,
      "▁Um": 8385,
      "▁earth": 8386,
      "▁records": 8387,
      "▁selected": 8388,
      "▁finalmente": 8389,
      "▁possibly": 8390,
      "cchio": 8391,
      "▁vino": 8392,
      "▁impianti": 8393,
      "▁{": 8394,
      "▁foll": 8395,
      "▁decisions": 8396,
      "▁continued": 8397,
      "▁package": 8398,
      "uris": 8399,
      "▁Ba": 8400,
      "▁partenza": 8401,
      "▁laure": 8402,
      "▁exchange": 8403,
      "lay": 8404,
      "life": 8405,
      "eless": 8406,
      "ups": 8407,
      "▁Cit": 8408,
      "▁tutela": 8409,
      "ennis": 8410,
      "▁NY": 8411,
      "▁Energy": 8412,
      "▁spending": 8413,
      "etra": 8414,
      "▁passed": 8415,
      "▁utilizzando": 8416,
      "ENTO": 8417,
      "▁plastic": 8418,
      "▁naturali": 8419,
      "▁corren": 8420,
      "▁restrict": 8421,
      "▁apps": 8422,
      "▁Democrat": 8423,
      "▁temi": 8424,
      "▁adding": 8425,
      "▁Ari": 8426,
      "▁inizio": 8427,
      "▁provare": 8428,
      "▁craft": 8429,
      "▁Second": 8430,
      "▁Saf": 8431,
      "▁Barb": 8432,
      "▁aumento": 8433,
      "▁convert": 8434,
      "estyle": 8435,
      "▁indirizzo": 8436,
      "vv": 8437,
      "lation": 8438,
      "ppio": 8439,
      "ATE": 8440,
      "▁ug": 8441,
      "▁fish": 8442,
      "▁processes": 8443,
      "fezione": 8444,
      "▁distance": 8445,
      "ologici": 8446,
      "agi": 8447,
      "erry": 8448,
      "▁pomeriggio": 8449,
      "▁chiedere": 8450,
      "agni": 8451,
      "▁cott": 8452,
      "cm": 8453,
      "▁establish": 8454,
      "▁partecipare": 8455,
      "uria": 8456,
      "akes": 8457,
      "▁accad": 8458,
      "▁terza": 8459,
      "▁smooth": 8460,
      "▁fed": 8461,
      "▁bic": 8462,
      "teria": 8463,
      "▁thus": 8464,
      "▁compagnia": 8465,
      "▁imped": 8466,
      "▁Libr": 8467,
      "▁psych": 8468,
      "ucch": 8469,
      "▁techniques": 8470,
      "RI": 8471,
      "▁sangue": 8472,
      "▁characters": 8473,
      "▁spesa": 8474,
      "▁introd": 8475,
      "ilomet": 8476,
      "▁Fondazione": 8477,
      "▁Camb": 8478,
      "▁aiutare": 8479,
      "▁Area": 8480,
      "▁dimin": 8481,
      "Inter": 8482,
      "▁Mex": 8483,
      "▁beach": 8484,
      "▁minimum": 8485,
      "utti": 8486,
      "▁mista": 8487,
      "▁Does": 8488,
      "▁festival": 8489,
      "▁doctor": 8490,
      "▁Scopri": 8491,
      "▁Alcun": 8492,
      "▁aspetto": 8493,
      "Cl": 8494,
      "▁differenti": 8495,
      "▁Sara": 8496,
      "▁print": 8497,
      "▁fuel": 8498,
      "▁requis": 8499,
      "▁End": 8500,
      "▁Ment": 8501,
      "rency": 8502,
      "▁repe": 8503,
      "night": 8504,
      "attenzione": 8505,
      "▁conference": 8506,
      "▁Ele": 8507,
      "zer": 8508,
      "▁dann": 8509,
      "UE": 8510,
      "▁Bor": 8511,
      "▁telefon": 8512,
      "icken": 8513,
      "▁passion": 8514,
      "▁Cina": 8515,
      "autore": 8516,
      "attie": 8517,
      "gery": 8518,
      "▁illeg": 8519,
      "▁svolg": 8520,
      "▁manifestazione": 8521,
      "▁functions": 8522,
      "▁protocol": 8523,
      "▁caused": 8524,
      "▁vive": 8525,
      "▁becomes": 8526,
      "▁Virgin": 8527,
      "known": 8528,
      "▁Martin": 8529,
      "▁gh": 8530,
      "▁Box": 8531,
      "▁foss": 8532,
      "▁ripet": 8533,
      "▁stars": 8534,
      "▁wine": 8535,
      "▁Bed": 8536,
      "▁Oil": 8537,
      "▁Bol": 8538,
      "▁Spa": 8539,
      "▁iniziare": 8540,
      "▁Ten": 8541,
      "▁potete": 8542,
      "▁Alessandro": 8543,
      "▁obj": 8544,
      "eph": 8545,
      "▁accident": 8546,
      "▁entrambi": 8547,
      "MI": 8548,
      "going": 8549,
      "aming": 8550,
      "gy": 8551,
      "▁scont": 8552,
      "▁Pac": 8553,
      "▁competenze": 8554,
      "▁Know": 8555,
      "▁addirittura": 8556,
      "▁Hard": 8557,
      "▁LED": 8558,
      "▁verranno": 8559,
      "ship": 8560,
      "▁continues": 8561,
      "▁updated": 8562,
      "▁Febbraio": 8563,
      "orare": 8564,
      "▁piu": 8565,
      "tagna": 8566,
      "rite": 8567,
      "▁Cra": 8568,
      "▁accommod": 8569,
      "▁dichiara": 8570,
      "associazione": 8571,
      "▁Durante": 8572,
      "▁claims": 8573,
      "▁Valent": 8574,
      "▁produc": 8575,
      "▁selezione": 8576,
      "apore": 8577,
      "esome": 8578,
      "▁opinion": 8579,
      "orale": 8580,
      "▁profile": 8581,
      "▁closed": 8582,
      "▁!": 8583,
      "▁dover": 8584,
      "▁conseguenza": 8585,
      "▁ride": 8586,
      "▁fondi": 8587,
      "▁fantastic": 8588,
      "▁ED": 8589,
      "▁programmi": 8590,
      "andom": 8591,
      "▁celeb": 8592,
      "▁agency": 8593,
      "▁minute": 8594,
      "▁deals": 8595,
      "crib": 8596,
      "▁AG": 8597,
      "▁neighbor": 8598,
      "▁components": 8599,
      "ancial": 8600,
      "▁Arm": 8601,
      "rees": 8602,
      "▁Gh": 8603,
      "aglio": 8604,
      "▁imb": 8605,
      "▁chiud": 8606,
      "▁Valley": 8607,
      "▁remains": 8608,
      "▁corporate": 8609,
      "▁tecnici": 8610,
      "▁giusta": 8611,
      "▁gamma": 8612,
      "▁Bir": 8613,
      "▁urg": 8614,
      "▁parent": 8615,
      "▁complesso": 8616,
      "▁beauty": 8617,
      "▁south": 8618,
      "iled": 8619,
      "▁beni": 8620,
      "▁benessere": 8621,
      "▁grant": 8622,
      "▁muo": 8623,
      "▁laun": 8624,
      "▁lad": 8625,
      "▁prezi": 8626,
      "▁Commer": 8627,
      "▁spin": 8628,
      "▁meant": 8629,
      "▁century": 8630,
      "▁debt": 8631,
      "▁vital": 8632,
      "▁lanci": 8633,
      "has": 8634,
      "▁Gesù": 8635,
      "▁Opt": 8636,
      "▁Dip": 8637,
      "▁Copy": 8638,
      "WS": 8639,
      "Associazione": 8640,
      "▁Fra": 8641,
      "▁Far": 8642,
      "▁worry": 8643,
      "▁danger": 8644,
      "▁attre": 8645,
      "ficie": 8646,
      "orrei": 8647,
      "blog": 8648,
      "▁Calab": 8649,
      "arp": 8650,
      "▁simb": 8651,
      "▁miglia": 8652,
      "▁pericol": 8653,
      "▁combination": 8654,
      "▁nemmeno": 8655,
      "▁thousands": 8656,
      "inari": 8657,
      "▁Las": 8658,
      "▁mental": 8659,
      "On": 8660,
      "▁Vict": 8661,
      "riere": 8662,
      "abinieri": 8663,
      "▁ricevuto": 8664,
      "usion": 8665,
      "▁documenti": 8666,
      "▁compens": 8667,
      "▁destro": 8668,
      "offerta": 8669,
      "▁relativi": 8670,
      "▁particolari": 8671,
      "▁cento": 8672,
      "zzur": 8673,
      "▁factor": 8674,
      "▁dedicated": 8675,
      "▁sfor": 8676,
      "▁trial": 8677,
      "▁affili": 8678,
      "▁documents": 8679,
      "▁stiamo": 8680,
      "▁policies": 8681,
      "▁chiede": 8682,
      "▁Crusher": 8683,
      "▁prossima": 8684,
      "ERS": 8685,
      "▁lascia": 8686,
      "▁industrial": 8687,
      "▁cambio": 8688,
      "▁acquisto": 8689,
      "▁efficient": 8690,
      "▁dà": 8691,
      "▁nord": 8692,
      "▁Thomas": 8693,
      "▁Vinc": 8694,
      "▁opzioni": 8695,
      "icl": 8696,
      "ZZ": 8697,
      "▁MS": 8698,
      "ettivamente": 8699,
      "▁messa": 8700,
      "▁changing": 8701,
      "▁consid": 8702,
      "▁Scuola": 8703,
      "▁scrivere": 8704,
      "▁internazionali": 8705,
      "egnato": 8706,
      "mazione": 8707,
      "▁Publ": 8708,
      "▁Terra": 8709,
      "____": 8710,
      "▁premio": 8711,
      "▁prosegu": 8712,
      "▁valu": 8713,
      "▁carattere": 8714,
      "visor": 8715,
      "water": 8716,
      "▁negozio": 8717,
      "Ex": 8718,
      "▁catch": 8719,
      "▁becoming": 8720,
      "▁Gior": 8721,
      "▁pell": 8722,
      "gian": 8723,
      "▁potuto": 8724,
      "ulations": 8725,
      "▁partito": 8726,
      "▁Germania": 8727,
      "▁relig": 8728,
      "▁Dol": 8729,
      "▁Assist": 8730,
      "▁riduzione": 8731,
      "▁Foundation": 8732,
      "▁francese": 8733,
      "▁crushing": 8734,
      "▁lontano": 8735,
      "▁residents": 8736,
      "▁chiusura": 8737,
      "▁Piazza": 8738,
      "▁furniture": 8739,
      "▁scelte": 8740,
      "▁independent": 8741,
      "▁Analy": 8742,
      "UB": 8743,
      "▁Rus": 8744,
      "▁actions": 8745,
      "▁Dra": 8746,
      "▁navigazione": 8747,
      "osce": 8748,
      "▁lasciare": 8749,
      "rates": 8750,
      "▁knows": 8751,
      "▁expand": 8752,
      "▁otherwise": 8753,
      "▁pret": 8754,
      "▁exception": 8755,
      "▁bathroom": 8756,
      "▁Chicago": 8757,
      "▁Both": 8758,
      "▁Party": 8759,
      "▁daughter": 8760,
      "▁ministro": 8761,
      "▁aperta": 8762,
      "▁Samsung": 8763,
      "▁impegno": 8764,
      "▁enhance": 8765,
      "itudine": 8766,
      "outhern": 8767,
      "unicip": 8768,
      "▁measures": 8769,
      "▁Paesi": 8770,
      "zen": 8771,
      "▁paes": 8772,
      "▁recommended": 8773,
      "bbia": 8774,
      "▁flat": 8775,
      "ileg": 8776,
      "▁funding": 8777,
      "▁Only": 8778,
      "sec": 8779,
      "edom": 8780,
      "▁traff": 8781,
      "▁France": 8782,
      "▁shipping": 8783,
      "▁mens": 8784,
      ".'": 8785,
      "▁Quali": 8786,
      "▁poster": 8787,
      "▁blu": 8788,
      "▁operazioni": 8789,
      "▁runs": 8790,
      "gage": 8791,
      "▁dott": 8792,
      "▁storie": 8793,
      "▁concerns": 8794,
      "iniziativa": 8795,
      "▁evening": 8796,
      "▁privati": 8797,
      "▁procedura": 8798,
      "▁interessi": 8799,
      "▁mett": 8800,
      "▁vantaggio": 8801,
      "▁centri": 8802,
      "▁Mur": 8803,
      "VD": 8804,
      "FL": 8805,
      "▁showing": 8806,
      "▁Union": 8807,
      "rican": 8808,
      "ducing": 8809,
      "▁scomm": 8810,
      "▁university": 8811,
      "liono": 8812,
      "▁Americ": 8813,
      "▁applied": 8814,
      "\")": 8815,
      "olit": 8816,
      "▁dubbio": 8817,
      "▁mq": 8818,
      "organizzazione": 8819,
      "▁simile": 8820,
      "▁consumers": 8821,
      "cam": 8822,
      "osco": 8823,
      "▁Steel": 8824,
      "▁migr": 8825,
      "▁girls": 8826,
      "▁colors": 8827,
      "▁commerciali": 8828,
      "▁Fall": 8829,
      "▁units": 8830,
      "cles": 8831,
      "▁narr": 8832,
      "▁les": 8833,
      "▁rimane": 8834,
      "▁ign": 8835,
      "▁climate": 8836,
      "▁Tosc": 8837,
      "▁chemical": 8838,
      "cean": 8839,
      "▁explore": 8840,
      "▁showed": 8841,
      "▁Rai": 8842,
      "writ": 8843,
      "▁creato": 8844,
      "▁deposit": 8845,
      "vity": 8846,
      "▁usato": 8847,
      "Se": 8848,
      "▁Strateg": 8849,
      "rie": 8850,
      "▁assistenza": 8851,
      "▁semi": 8852,
      "▁privato": 8853,
      "▁guests": 8854,
      "▁dollari": 8855,
      "inario": 8856,
      "▁simili": 8857,
      "▁soggetto": 8858,
      "▁Uni": 8859,
      "▁Tecn": 8860,
      "▁rifiuti": 8861,
      "▁lap": 8862,
      "▁proget": 8863,
      "▁express": 8864,
      "▁strade": 8865,
      "bilmente": 8866,
      "▁Sat": 8867,
      "▁piena": 8868,
      "▁poker": 8869,
      "▁outdoor": 8870,
      "%)": 8871,
      "▁battery": 8872,
      "with": 8873,
      "wel": 8874,
      "▁citiz": 8875,
      "▁identific": 8876,
      "▁nato": 8877,
      "▁Leon": 8878,
      "uce": 8879,
      "▁Ze": 8880,
      "poration": 8881,
      "▁vor": 8882,
      "alian": 8883,
      "lli": 8884,
      "▁journal": 8885,
      "▁artisti": 8886,
      "▁sympt": 8887,
      "▁totally": 8888,
      "▁processi": 8889,
      "iazione": 8890,
      "▁Giorn": 8891,
      "▁focused": 8892,
      "▁carriera": 8893,
      "▁Ciò": 8894,
      "▁obiettivo": 8895,
      "▁scat": 8896,
      "▁clearly": 8897,
      "▁Pietro": 8898,
      "▁Giul": 8899,
      "osamente": 8900,
      "ximately": 8901,
      "atile": 8902,
      "▁luc": 8903,
      "▁promozione": 8904,
      "▁presence": 8905,
      "▁rass": 8906,
      "▁GD": 8907,
      "vamo": 8908,
      "aste": 8909,
      "▁ice": 8910,
      "▁famous": 8911,
      "▁ripos": 8912,
      "▁previously": 8913,
      "▁Prod": 8914,
      "▁assemb": 8915,
      "▁lux": 8916,
      "▁esso": 8917,
      "▁ok": 8918,
      "heless": 8919,
      "▁excited": 8920,
      "▁Sho": 8921,
      "▁map": 8922,
      "car": 8923,
      "▁kid": 8924,
      "▁aumentare": 8925,
      "oration": 8926,
      "▁starts": 8927,
      "PP": 8928,
      "cohol": 8929,
      "▁ampio": 8930,
      "▁Rod": 8931,
      "▁attualmente": 8932,
      "igan": 8933,
      "▁pagare": 8934,
      "▁umano": 8935,
      "▁nerv": 8936,
      "unico": 8937,
      "ologo": 8938,
      "▁instru": 8939,
      "olazioni": 8940,
      "▁sy": 8941,
      "▁situazioni": 8942,
      "▁suitable": 8943,
      "▁Governo": 8944,
      "!)": 8945,
      "exp": 8946,
      "▁discussion": 8947,
      "▁CBD": 8948,
      "▁europeo": 8949,
      "▁guy": 8950,
      "▁quote": 8951,
      "erno": 8952,
      "inanza": 8953,
      "▁PAR": 8954,
      "▁relationships": 8955,
      "itiva": 8956,
      "▁sentire": 8957,
      "▁ripor": 8958,
      "formance": 8959,
      "ingly": 8960,
      "sm": 8961,
      "olars": 8962,
      "▁violenza": 8963,
      "▁devo": 8964,
      "▁Ltd": 8965,
      "▁lock": 8966,
      "▁panel": 8967,
      "iller": 8968,
      "interest": 8969,
      "▁Ministero": 8970,
      "▁mine": 8971,
      "▁mes": 8972,
      "▁possibili": 8973,
      "▁dose": 8974,
      "▁dipl": 8975,
      "▁estrem": 8976,
      "▁mountain": 8977,
      "▁leads": 8978,
      "▁appears": 8979,
      "otten": 8980,
      "▁bright": 8981,
      "▁veter": 8982,
      "▁Dall": 8983,
      "▁creazione": 8984,
      "agers": 8985,
      "rated": 8986,
      "▁Più": 8987,
      "▁Main": 8988,
      "▁Way": 8989,
      "rich": 8990,
      "▁Clean": 8991,
      "appro": 8992,
      "▁administration": 8993,
      "▁continuare": 8994,
      "▁classic": 8995,
      "▁Human": 8996,
      "▁Multi": 8997,
      "ronom": 8998,
      "▁Berg": 8999,
      "ignore": 9000,
      "▁Lavoro": 9001,
      "▁medium": 9002,
      "▁componenti": 9003,
      "▁brief": 9004,
      "▁persp": 9005,
      "ttore": 9006,
      "▁injury": 9007,
      "▁fai": 9008,
      "▁Secret": 9009,
      "▁fisica": 9010,
      "▁ragazze": 9011,
      "▁behavior": 9012,
      "▁alcuna": 9013,
      "▁cord": 9014,
      "▁stesse": 9015,
      "▁winning": 9016,
      "▁contrario": 9017,
      "▁affect": 9018,
      "asia": 9019,
      "see": 9020,
      "ration": 9021,
      "orney": 9022,
      "isola": 9023,
      "idenza": 9024,
      "▁marchio": 9025,
      "▁toward": 9026,
      "abilities": 9027,
      "▁Code": 9028,
      "▁partners": 9029,
      "▁cann": 9030,
      "▁Gruppo": 9031,
      "▁Somet": 9032,
      "▁honest": 9033,
      "avo": 9034,
      "▁vogliono": 9035,
      "▁maximum": 9036,
      "▁History": 9037,
      "▁sounds": 9038,
      "▁superficie": 9039,
      "▁elettronica": 9040,
      "▁proud": 9041,
      "▁pray": 9042,
      "ATA": 9043,
      "▁dieta": 9044,
      "▁Personal": 9045,
      "▁considering": 9046,
      "encing": 9047,
      "▁circum": 9048,
      "For": 9049,
      "▁norme": 9050,
      "UD": 9051,
      "▁collet": 9052,
      "reek": 9053,
      "▁Using": 9054,
      "▁Infatti": 9055,
      "▁Loren": 9056,
      "forte": 9057,
      "▁crow": 9058,
      "▁sullo": 9059,
      "bilities": 9060,
      "allazione": 9061,
      "▁Rip": 9062,
      "rica": 9063,
      "▁Obama": 9064,
      "▁accounts": 9065,
      "bour": 9066,
      "▁diab": 9067,
      "▁dolce": 9068,
      "▁cessione": 9069,
      "▁parlato": 9070,
      "OW": 9071,
      "▁opened": 9072,
      "▁theme": 9073,
      "▁transform": 9074,
      "▁od": 9075,
      "▁grinding": 9076,
      "oster": 9077,
      "▁azione": 9078,
      "▁Città": 9079,
      "point": 9080,
      "▁lunghe": 9081,
      "lines": 9082,
      "uters": 9083,
      "scape": 9084,
      "▁specifically": 9085,
      "▁libera": 9086,
      "utato": 9087,
      "inch": 9088,
      "▁detailed": 9089,
      "▁Ry": 9090,
      "▁Bru": 9091,
      "▁imprend": 9092,
      "ivio": 9093,
      "▁vole": 9094,
      "outs": 9095,
      "▁environmental": 9096,
      "PN": 9097,
      "▁rient": 9098,
      "arietà": 9099,
      "PD": 9100,
      "yles": 9101,
      "▁appuntamento": 9102,
      "▁snow": 9103,
      "▁Continua": 9104,
      "▁possano": 9105,
      "▁prende": 9106,
      "▁FR": 9107,
      "cur": 9108,
      "▁instance": 9109,
      "▁Ai": 9110,
      "▁internal": 9111,
      "ariff": 9112,
      "▁Western": 9113,
      "▁stores": 9114,
      "▁acceler": 9115,
      "orea": 9116,
      "▁aere": 9117,
      "▁comprom": 9118,
      "iterrane": 9119,
      "▁Meet": 9120,
      "▁beat": 9121,
      "▁generation": 9122,
      "uled": 9123,
      "▁Leave": 9124,
      "▁calci": 9125,
      "intage": 9126,
      "evol": 9127,
      "▁gun": 9128,
      "▁teatro": 9129,
      "▁dyn": 9130,
      "rum": 9131,
      "▁polizia": 9132,
      "▁providers": 9133,
      "PL": 9134,
      "ativamente": 9135,
      "applicazione": 9136,
      "▁scal": 9137,
      "▁modi": 9138,
      "attle": 9139,
      "page": 9140,
      "▁teacher": 9141,
      "▁Oli": 9142,
      "▁tank": 9143,
      "▁stated": 9144,
      "▁protagonisti": 9145,
      "▁apart": 9146,
      "▁regime": 9147,
      "chetto": 9148,
      "▁logo": 9149,
      "uglia": 9150,
      "occhio": 9151,
      "endosi": 9152,
      "CD": 9153,
      "▁normale": 9154,
      "uble": 9155,
      "ading": 9156,
      "▁lotta": 9157,
      "▁oli": 9158,
      "▁aiuto": 9159,
      "ishes": 9160,
      "andi": 9161,
      "▁alleg": 9162,
      "▁pasta": 9163,
      "▁vivo": 9164,
      "▁principi": 9165,
      "▁Sind": 9166,
      "▁despite": 9167,
      "▁volontà": 9168,
      "economia": 9169,
      "▁password": 9170,
      "ocket": 9171,
      "ucci": 9172,
      "▁Cron": 9173,
      "▁District": 9174,
      "▁Abb": 9175,
      "▁salt": 9176,
      "▁Requ": 9177,
      "▁ended": 9178,
      "▁sindac": 9179,
      "▁forti": 9180,
      "▁ricetta": 9181,
      "▁Dim": 9182,
      "▁Anna": 9183,
      "▁kinds": 9184,
      "▁enjoyed": 9185,
      "▁consumer": 9186,
      "▁esser": 9187,
      "▁prossimi": 9188,
      "▁boost": 9189,
      "▁Ref": 9190,
      "▁managed": 9191,
      "▁sacri": 9192,
      "▁ingresso": 9193,
      "fil": 9194,
      "▁nurs": 9195,
      "▁semplici": 9196,
      "riage": 9197,
      "▁moglie": 9198,
      "▁Fact": 9199,
      "▁Matteo": 9200,
      "▁teachers": 9201,
      "▁offerta": 9202,
      "▁(\"": 9203,
      "▁protected": 9204,
      "verage": 9205,
      "▁facility": 9206,
      "▁reference": 9207,
      "▁profond": 9208,
      "▁shares": 9209,
      "alty": 9210,
      "▁mit": 9211,
      "▁pensato": 9212,
      "▁consolid": 9213,
      "▁comincia": 9214,
      "▁disponibilità": 9215,
      "▁ragazza": 9216,
      "▁jack": 9217,
      "ASS": 9218,
      "▁presti": 9219,
      "▁giovedì": 9220,
      "TH": 9221,
      "▁Financial": 9222,
      "▁ricordo": 9223,
      "▁Arg": 9224,
      "▁cort": 9225,
      "▁vogliamo": 9226,
      "▁Town": 9227,
      "▁Puoi": 9228,
      "▁abbandon": 9229,
      "▁viss": 9230,
      "▁Dub": 9231,
      "BI": 9232,
      "pero": 9233,
      "olino": 9234,
      "▁membri": 9235,
      "▁richiede": 9236,
      "▁putting": 9237,
      "▁Piano": 9238,
[...]
